skating
farms
##quate
circunst
Doctor
figures
1626
financially
nad
##tra
advertiser
venice
ɲ
monk
verbal
johanna
scans
Probably
fore
##ke
outstanding
##UDE
cactus
splitting
alexa
standing
##ե
##opping
advocacy
recommended
##kt
##icient
[unused763]
public
##pate
##peace
Pet
bucharest
culturally
amused
exponentially
infromation
##azi
incl
adhere
##nio
tumbling
torpedoes
vest
##nard
personn
produces
IT
##nall
##iction
52nd
associates
dave
##icio
thre
printed
Colomb
Russ
doom
serra
##hold
navajo
子
1918
needs
apprent
intrigued
thankful
a1
dissatisfaction
passes
constraint
saharan
untill
molten
##Students
##ato
##atz
collectors
prisoner
analogue
[unused19]
inventive
somet
proves
##artment
carriage
tranqu
bosnia
##ড
poetic
landscapes
##m
gaps
spreads
dean
[unused865]
unch
loop
[unused219]
viaduct
words
##devel
athletics
##hari
khalid
##..
retrospective
caus
thirst
princeton
##fine
antiquity
oppertunity
controversies
stain
sutra
billings
##mpton
utilized
transformers
pc
panda
inculc
entrance
substantiate
##ithing
affort
##二
archite
roi
olds
baltimore
jedi
humanoid
[unused938]
[unused264]
versa
running
remodeled
planck
preview
count
threats
##kh
hindwings
understand
profiles
slipping
tattoo
dignitaries
redu
secretary
put
brigham
posture
Initially
bying
opposing
lips
veto
neighborhood
contribute
chosen
##rica
##@
uncover
logan
extinct
affair
benef
tolerance
plurality
apathy
flicker
##hma
##ogn
narrow
childless
ν
acclaim
##hia
curt
##आ
##cribe
##yya
vila
##ier
##VERY
titanium
objective
concessions
tricky
credit
163
engeneering
yers
piercing
adage
obtaining
josiah
[unused403]
03
brandenburg
norte
painter
ancestors
[unused314]
flaw
nixon
kindly
confine
excuses
ended
sym
nonprofit
regulators
safeguard
concious
watching
##archy
scars
watts
lawrence
##lent
##iology
[unused423]
surprised
Secon
¿
512
##ached
atmos
packets
encompassing
##listic
##ustrial
approaching
##nant
##治
reliefs
fried
before
##cers
##क
##PLE
expirience
Experts
bycic
##apping
instrument
integr
conscious
recognised
bundesliga
##yen
c2
disg
##onardo
pert
##organized
verandah
unification
##lard
mclaughlin
taiwan
luzon
##ов
##kur
##`,
echoing
song
celebrity
##puram
baking
hydro
unconscious
##є
balancing
##yon
tyre
ps
contentious
##tled
righteous
savannah
##अ
christoph
##dy
##rly
contra
[unused456]
bassett
##Another
##ß
solicitor
latch
battling
talon
Marx
##action
∨
zion
Graham
morris
ia
sciences
image
pig
##eping
letterman
memoir
three
snails
##Youth
particoular
highly
##ether
express
girl
wih
216
specialistic
##hea
##loid
precision
trainee
1985
Singapore
##before
square
[unused809]
##mming
shareholder
unk
##ere
pathology
muscles
eternal
##assions
alice
bedroom
##ppa
##oult
Speaking
memories
ears
iain
##ivated
closes
uprising
calling
castro
##horpe
##erine
den
de
pollen
₤
jaenelle
##reen
[unused107]
##ited
##dling
##culus
speculation
nme
オ
Invent
hush
##iday
##imistic
##xon
##lind
mult
rai
asleep
driven
version
##erous
regularly
bacteria
exercises
vase
uruguayan
cara
amuse
messing
apprehension
grat
corner
[unused240]
##lom
nocturnal
gaulle
##jean
##dion
dist
##nees
ion
archaic
##block
hara
unfolded
##minded
##eat
fountain
sick
##jar
ʿ
boston
secret
pandora
seychelles
woodlands
hazardous
roam
##role
##minating
occured
art
##sville
rankings
wicked
context
patty
wrists
##vera
##entes
[unused529]
brigade
[unused769]
indicator
tuscany
Pollution
gathered
decisive
worl
1645
strateg
contacts
##coe
location
##arry
mansion
ab
clear
chanting
genetics
fron
##ool
pagan
democrat
assignments
##formed
veich
anticipating
ignored
##safe
##iffel
##lvis
indic
##ief
za
cares
distractions
raiding
feet
waterfall
1937
preacher
##mina
taboo
exem
happiness
##adian
##gebra
usher
##interpret
regarded
romero
zenith
floods
logging
##bble
reproduced
songwriting
Con
hove
##য
ox
inev
ends
##hum
ก
zack
calves
³
premiere
wax
shortage
crying
delivering
blessing
heights
[unused358]
[unused8]
lingering
ful
##hwa
pure
##て
bison
participates
##through
##ay
federation
##ddle
shit
investig
##itors
tianjin
comprehensive
WH
assassin
trooper
screaming
healing
pigs
york
b
group
characterized
advantage
northeastern
##ₚ
440
##graphy
drip
inher
convinced
sirius
inter
reactive
##och
ebert
cops
##mbs
edmund
sailed
##nca
handful
gains
after
##թ
##oration
##dermott
##walk
##良
Green
[unused308]
rochelle
burdens
##T
##サ
oyster
##rage
##iso
stump
depart
infant
##verse
roster
amounted
Who
##iber
leaned
sans
Google
##mental
additions
haul
effects
employers
si
impacts
cellar
thair
##ethe
OUR
cognitive
##。
##hyl
1670
宀
rebranded
islamist
[unused908]
[unused845]
David
operative
fooled
[unused302]
chooses
rang
shooting
##lastic
fuss
angry
25
integ
toby
##ECH
damaged
dispute
##phus
##educ
confederate
waving
##uz
##breaker
obligated
##yst
yi
Design
##fying
busted
arguably
brigades
Different
##erts
san
glory
occupying
disadvantages
Mostly
molecular
turkish
Sad
slashed
western
meditation
ostensibly
##asco
mindset
beginnings
##VE
robbins
salsa
##osed
460
132
goethe
advat
humanbeing
manuscripts
recovery
egan
gaa
[unused425]
##נ
bentley
hose
ᄅ
disability
##ouring
silent
manage
saved
noodles
practiced
similarity
colbert
pensions
##lead
tightening
economics
everyting
##sr
##ca
chiefs
respiratory
jokes
##dled
investigation
justify
##its
Studies
##ர
registry
extensively
prematurely
wheather
inch
grabbed
[unused630]
implications
monroe
Ipod
shivering
##sume
guiding
fraudulent
growling
Helping
linear
czechoslovakia
##jou
households
seduction
buckinghamshire
##bala
##isons
##ion
laid
##rricular
materials
ease
##ets
healy
Schools
tax
magnificent
##according
doubles
beliving
##general
Alex
organist
circuits
theorist
bitterly
dealer
в
心
texans
UNDERSTANDING
avant
discontinued
##ო
instituto
decresing
##hermore
##ensity
[unused331]
ʊ
braking
##ο
wrap
##effective
vampire
[unused691]
powerfull
costum
assam
engraved
classed
distorted
1736
enthusiasts
hash
##ations
[unused378]
##inc
1775
##inium
##tein
##uot
accused
guadalajara
##fulness
tragic
begged
compensate
soon
oder
numb
##ˢ
control
##zawa
125
imitation
##sive
patch
clasped
isle
〉
##dates
bun
pierce
undertaken
observatory
consensus
calam
##uce
emilia
##ᵉ
relatives
schumann
torch
jennings
##nais
anonymous
cinematography
##ideo
##sc
gb
Thereby
1622
nutrients
disadvat
records
folklore
remarkable
##held
orthogonal
issue
rallies
##portance
stephan
##ை
##lander
pia
distributed
constantinople
##kus
inward
##Firstly
centre
history
orphanage
prince
##tituted
religion
evade
prov
subcontinent
reachable
shaman
##drome
orbits
childish
impatience
interruption
railways
professional
##ased
especially
jeans
37th
consecu
balthazar
confederation
##ription
co₂
hurdles
##城
##jection
deple
gnu
aswell
clever
support
financed
1804
intresting
americans
pleaded
##ctor
sale
preliminary
councillor
pas
constructive
baron
check
trombone
##j
##mann
##ily
##с
##stis
measure
valentine
knocking
czechoslovak
##hyllum
##plant
tender
composing
hectares
passing
##ske
Specific
majesty
glistening
spice
Ten
edited
app
stool
##omorphic
opinon
unspoken
carrying
。
drain
socialists
bedford
ী
prud
reversed
amalgamated
##esh
florian
shou
##According
Obviously
temples
##ls
樹
groin
##lities
[unused62]
2a
salvador
token
##א
spacecraft
comply
TOEFL
freely
##eop
##erative
anticipated
##iqueness
sitcom
disbanded
madman
scattered
exemption
wakefield
loomed
enthusiastic
seizures
woodward
##ᵒ
##ilar
artists
uncle
unclear
##lett
concequence
additive
educational
operators
trendy
johnstone
earrings
diversified
ratings
prescribed
preoccup
magnetic
homemade
all
havilland
##་
##unities
##dran
violating
stanisław
extension
eight
##,,
succesfull
motors
defendant
knob
mammoth
regretted
playground
quaker
##ginal
biodiversity
clad
##ums
honorary
張
##ply
finds
く
compound
convinence
news
respectful
ャ
##bas
bitten
##americana
afc
drawing
##erdays
warrant
inflammatory
guerra
bewildered
loretta
feral
OLDER
##ز
bullying
##Ex
crows
underworld
soce
directly
possession
reflected
##jal
peng
dentistry
treacherous
sioux
##loh
##mise
050
##You
abused
eisenhower
750
rooftop
experiance
skopje
##felt
competion
shiver
beard
gymnastics
isnt
##les
##itions
solemnly
avoid
underm
per
redundant
gathers
interrupted
opport
facial
enorm
2002
##ika
remembers
myth
rotating
jen
coconut
games
star
claudio
struck
gland
##orow
feeling
chores
dynamic
robyn
Bus
beans
gem
praises
ample
proffesor
##ং
excessively
##ச
swayed
##ς
recent
∘
married
konw
ᄀ
oaxaca
##gs
warehouses
phillies
bernardino
[unused886]
##roe
gripped
position
authorities
##長
fou
thistle
longtime
explorer
prompting
Taipei
##sop
conglomerate
##ading
##here
orr
l
decrees
isotope
##ention
expressive
Starbucks
learners
##erol
##erland
Kant
##tara
1743
Leonardo
disappear
tackled
herds
shreveport
photographs
never
34th
apologetic
##wdge
bobby
comprehending
photo
embrace
taller
rhyme
pay
eurovision
##anov
marty
##rrado
soci
string
shri
wanna
taylor
communities
relevant
##tase
guthrie
math
##Even
ti
##ptions
sanchez
experic
lp
unav
##umes
fortunes
garrison
alam
compassionate
MOST
facts
242
е
¾
arranger
until
司
[unused198]
208
helicopters
rattling
##gg
closeness
blowing
##±
curve
lucknow
larger
tenth
##atter
bari
##khan
##special
maria
##eers
decided
[unused111]
##stead
[unused548]
schizophrenia
expert
##IDS
orgn
harvest
##ssa
prefers
##ATED
##oil
champagne
flavour
CON
unnec
swan
programmer
descriptive
jerome
##rro
lover
sinai
poo
braced
Pr
uae
##estab
[unused565]
jeremiah
volley
fac
continuously
THING
bac
Unless
handicapped
sentiment
pupils
rd
disad
##cl
provincial
##atable
proo
[unused831]
valuation
1100
genes
crushing
Only
panama
mango
正
explosives
visibility
muzzle
##85
##mobile
contr
huey
furnished
showcases
column
[unused83]
like
##phy
waitress
Harvard
##bies
indonesian
armenia
##IC
stunts
fairchild
dialogue
narratives
repulsed
adverties
་
PS
anyone
##kala
providers
##rell
hopes
garry
##encial
rouen
clerk
dismiss
1781
##des
celtics
stance
loving
danish
fight
triggers
invited
marcelo
[unused729]
delle
preca
large
advirtese
cutler
neumann
billion
looting
impotant
READ
[unused846]
elena
##ل
risks
##ouses
leipzig
##lobal
tourguide
##cuit
proficiency
medic
[unused318]
apartments
unrest
ranged
##linger
Broad
lola
toss
unlock
contest
scince
anwar
subdistrict
icao
violin
certified
[unused283]
stumbled
ache
ट
##icate
##nnis
##.\
persuasive
##meister
orton
react
##§
subterranean
##kling
Stat
timeline
indicating
##hic
warrington
##esty
manufacturers
hirsch
sap
transferring
gates
puzzle
relied
quite
milford
granted
goo
updated
levels
##adow
##þ
irish
sitting
taipei
cop
praying
iv
hired
##iox
familiarity
blu
judges
upgrad
##mittedly
##ն
dmitri
develop
invasion
glove
contention
induction
congresses
whom
conser
advancement
palestine
financing
hamburgers
forces
##rona
不
remains
XX
ル
scout
che
Basically
validity
simultaneously
initiatives
[unused373]
##ification
vega
highlights
##uts
suez
domestic
wolrd
##lten
##ants
MBA
##discipl
##ran
##oda
reducing
malta
noelle
bags
##zil
determine
trembling
firearm
electro
motorsports
urg
evelyn
rele
lottery
sank
##ර
tomb
twins
30th
humboldt
licenses
simplified
weddings
louisa
dungeon
endeavour
enhancing
##ela
ք
chop
conner
geelong
##idia
##rupt
tiled
phonetic
usefullness
##曲
##tance
##n
##ees
hurrying
figure
[unused493]
23
enogh
##TER
[unused300]
##lication
increasing
busy
raided
joyah
##tat
ultim
intrest
##hd
intelligent
swelling
strode
behaiv
ballads
torture
instructor
reused
donovan
themse
typing
forbidden
solitary
hector
1981
producing
terminus
literacy
212
TOEF
##wife
ottoman
##merie
someones
##grounds
magaz
kassel
leaked
newell
Likewise
##rt
##abh
replication
elisa
##aud
[unused726]
spokesman
##had
xbox
sundays
imaginative
sociological
[unused550]
masculine
1898
ང
freiburg
rental
[unused490]
ara
far
indices
puplic
##IZ
hd
olders
##8
posing
finishes
##mount
segregation
durable
thrash
referring
traged
advisory
sleeve
absolutly
luz
annex
burt
[unused95]
eels
wholly
surf
blitz
[unused586]
##ा
1776
##rok
daly
precinct
showing
prosecutors
standarts
evolutionary
colors
mut
hopper
##ig
infomation
##looking
##bots
##25
##oms
##ibilities
trimmed
##HER
##wh
donation
grimes
palatine
someting
gameplay
relate
pokemon
silly
compelled
emit
##specific
##nched
[unused599]
infamous
ominous
Organ
forested
lunatic
colour
studying
rent
275
glue
1968
relics
more
chord
astron
framed
s
江
##lang
kathmandu
mule
##cased
1604
astros
##yce
mem
##lers
vowels
In
ethan
pavel
##AG
presented
shitty
ryder
deer
Adults
hoc
custumer
##these
speaking
[unused443]
##o
##reed
##issa
curtains
romania
twelfth
ottomans
tunnel
implementing
cd
Trans
However
bordered
1828
procedural
##ன
krakow
1811
##mined
spinal
crabs
Next
peoples
commonplace
##ured
ruthless
converts
[unused751]
antwerp
##nction
ne
1919
persuade
Advertisements
speical
customers
[unused782]
filed
contacted
470
gaze
accompany
##uf
combat
ahve
granada
glamorgan
diversion
formul
relly
lopez
seater
mira
concerning
[unused275]
NGOs
empires
[unused195]
purch
##nzo
poisoned
fighting
supremacy
##yala
galician
##მ
commentaries
##lization
##sus
finalist
[unused208]
bound
tim
[unused905]
nagar
##ʀ
bounce
##ろ
##stem
Car
bahadur
parent
pens
usc
porpuse
delay
amazon
##rith
reasone
porch
##tsa
karen
equivalence
##waite
##ny
pr
##dus
eco
##eness
doris
##ents
hillside
##ard
jed
##ternal
bravery
Environmental
admired
[unused984]
definitions
summerize
##る
vines
2d
More
##Su
components
Taking
doubling
stephen
raceway
generally
links
##on
##ms
somerset
##ference
mort
shining
ripley
navig
unbelie
bonding
ap
moat
NSS
tokugawa
##forth
tighten
sil
nikita
gym
pm
dimitri
shame
vulnerable
plase
##ise
beatrice
dana
protagonists
##ʁ
archery
##ners
poem
russia
##plicity
alzheimer
fake
##lby
diana
##atically
abuses
##wi
complexity
dealers
##roy
Roman
##ntine
madeira
##RE
pople
##type
王
care
smile
declare
##ining
reared
♣
honduras
riaa
##ifice
Besides
[unused732]
##tech
fountains
##never
orleans
differentiate
ւ
myspace
degradation
##EN
##ว
##What
qualifications
peking
ħ
lodging
acquisitions
##ida
vitamin
textiles
##sily
framework
ballistic
inorganic
realizes
##ume
staggering
tape
incor
finish
carrie
fro
Concluding
Prov
TRAVEL
conepts
##tose
howling
999
contemporary
parties
##aceut
number
##cious
dreamed
hilarious
slog
suriname
beating
untrue
worths
##sman
appeared
tickets
Japan
##kko
##chi
Im
academy
ide
jod
stature
talbot
##ರ
##always
ipod
Per
type
##asons
manuel
abundance
convention
treaties
milky
##yong
methodology
msc
Las
humiliated
cooperation
##ogenic
completion
inn
pi
committ
habsburg
hidalgo
side
koreans
##hian
##л
soaps
noises
##bound
estab
indicted
accounts
dense
[unused389]
indep
louisville
rank
1824
cubs
##INE
cherish
tucker
kin
##yria
thessaloniki
indulge
adrenal
Sp
terribly
[unused811]
[unused843]
tr
[unused787]
Pepsi
pair
##tial
##alk
adversary
##⁻
##yne
satellites
insurrection
1867
##ии
relaxing
emanuel
satisfactory
birthday
##alize
teaming
suppressed
holster
ourselves
60s
##ermore
##Nobody
electronic
TV
therefor
bridges
penn
kidney
montpellier
unarmed
liberia
rio
peopel
distinguished
##alled
coincidentally
##dity
##ƒ
octave
##rink
learns
filled
བ
jessie
1912
##hough
305
cody
skilled
pow
responding
##hya
1,
experi
parked
uneven
clustered
bombed
##uder
xii
##fp
⁹
squadron
butch
anton
philosophical
apper
ribbon
knit
##arty
harden
ケ
nineteenth
nate
pasta
particular
substances
boating
preson
##vel
wolud
onslaught
anders
reactor
kerman
##aar
##green
竹
dynamo
ध
aleksandr
غ
##bilities
libel
throbbing
rotational
venerable
parochial
subset
aggression
secrets
strasbourg
##lateral
##uwait
brush
threat
mammals
maryland
##miya
threads
##depend
##rna
##itis
##aja
routinely
lady
completed
##inating
temptation
perfection
flees
##LL
##eme
widespread
slot
1717
##cture
national
feud
learner
achie
make
bridge
stepping
##eu
##yas
army
enjoys
openion
geography
compatibility
earn
climb
freedom
empowerment
commandant
correction
colon
belarus
calcium
##ancy
lucille
look
##ɪ
sins
foll
##app
bmw
friendships
spent
unhappy
[unused944]
memorise
##ID
##iko
serena
##oline
winds
##edays
##Suppose
##nto
herald
reads
barack
##ingly
temeraire
##zine
##roller
angle
21
gu
blackish
overse
tail
97
merry
opin
conse
sn
##Infact
bay
excus
translated
equip
murdoch
fulfil
inches
cramped
programmers
mtv
##hammer
analogous
philippines
false
lot
siege
##balls
hermitage
##reate
ui
worker
defe
blinking
exceeded
desire
casualty
enrich
immature
thread
fixture
171
superv
[unused462]
facilitate
##pio
discrimination
tap
payne
##haling
##zhi
##May
宿
CO
acctually
beaufort
gough
##rnier
aura
overtook
sacks
institution
customer
Rock
Numerous
##aven
diego
aims
阝
braden
cruisers
An
travels
durham
##ⱼ
##ails
goddard
retail
aboriginal
##tea
telecomm
flowering
##uro
[unused819]
sentinel
privatization
mexico
##AM
vibrations
augusto
Napoleon
artist
only
combination
ruben
##西
##ASS
##stered
formulate
childs
##ici
##ζ
wonder
57
banners
##erg
##Many
intelleg
##nte
##building
behaviours
[unused16]
pegasus
##without
prove
portraying
AC
##chai
restricting
##lds
investing
##gami
impact
overwhelming
angeles
##ticus
ambitious
headache
wonderland
##wt
##</s>
maximus
cory
evolve
germanic
olga
mediocre
incorpor
brandon
beirut
separated
cheeks
fir
shy
machines
[unused747]
consecration
impoverished
[unused849]
Others
strait
352
promoters
raion
barron
##cted
strike
##ition
rake
##'.
##grating
scientist
mysteriously
vegetables
[unused750]
observations
spruce
enterpr
DIFFERENT
energies
rotterdam
NASA
fred
##hes
##cie
adults
realistic
suff
##rove
sex
nonetheless
武
Media
##nified
##Other
plague
preferring
faculties
reforming
sprawled
snacks
rents
curtain
offer
pearl
##isation
instit
preparations
Either
##undry
short
1854
[unused958]
federico
pict
##宗
##ution
##ق
dona
##veys
##bbed
##ᄌ
##☆
gemma
dignity
precisely
fielded
sujects
till
experienced
kiara
roads
despair
preserving
ko
sources
conqu
legion
resembling
[unused212]
ashes
1816
ᵥ
charming
honored
rhone
seizure
exposing
initi
##onna
1936
##cliff
[unused291]
##bane
Sur
profound
Do
brig
reach
pipes
##fort
##omy
plaques
lush
luggage
struggle
lowers
apostle
[unused578]
juliet
budgets
##hun
ش
##esearch
yen
##aan
##iminals
##C
##ম
spiders
second
shipment
##bos
piloted
retracted
duane
drifted
busch
viper
freelance
dubious
##bac
404
res
##ada
borne
44th
[unused119]
warships
wt
##ine
##6
##yin
Korean
##rdes
handic
##phic
##thesis
##gree
listing
vin
percussion
reluctance
Hopefully
vaccine
hormone
[unused554]
teenagers
##aco
footed
henrik
adriatic
¶
elite
clarified
hob
inmate
##lika
bukit
Petrol
hawthorn
decades
unison
swap
webster
alerted
labrador
wessex
accepted
havre
traveld
macedonian
spons
[unused795]
denomination
anomaly
##friends
escaped
HA
maps
prism
prolific
determinate
##sson
enthusiast
Jordan
dj
blush
flood
##ʂ
bhutan
ances
德
rigged
##global
##etheless
draw
gus
##ams
##ctus
Children
rally
concern
successfully
acceptable
##bau
kown
##cil
Ideas
stationed
ᵗ
##oding
alter
cheyenne
gardener
screening
131
reached
##↔
muscle
believers
clung
[unused773]
[unused509]
warnings
advert
jude
##iry
MRT
##fter
advertisers
fragments
citys
speed
ว
witty
util
captured
grunted
plan
##urai
producs
WE
stephenson
impr
moment
democ
##scoe
structural
fellow
kinder
repeat
basics
transl
##Jack
emissions
physi
palazzo
geschichte
als
##aghan
##Yes
exmaple
coliseum
Does
pa
##itative
##joyment
produts
village
##し
ida
Meanwhile
##won
[unused912]
rigth
adrian
manufactures
theoritical
##issance
great
lat
##middle
##bu
leeds
berth
bengal
singular
ӏ
Morover
Log
##itic
##∪
ʷ
##lium
ninety
parma
⟩
ineffective
forexample
Younger
armory
austrians
moravian
extremes
wandering
complexed
golf
dinosaurs
dance
implic
season
Traffic
orderly
invis
forming
##dit
cleveland
argumentation
##eus
baxter
##ija
##oting
aluminum
[unused386]
separately
1862
##ᶜ
mysterious
261
subway
northwest
shrubs
[unused131]
joan
sequel
courage
gin
sience
##computer
analyzed
liang
##rke
drugs
ss
trips
Ult
ths
[unused650]
knoweledge
329
##alf
renowned
recruits
##oteric
##inger
##河
acknowledging
brutally
current
glitter
lern
atrocities
cured
ferris
insider
carmel
bal
moans
##tore
hymns
proctor
！
##iman
repair
papal
##rva
mono
omar
##man
streaked
mortimer
production
wave
##nch
probleme
##म
forrest
nominees
tori
##urst
##cino
tony
trafficking
##yoto
##ater
goals
loan
murder
af
##db
mph
jewish
trasportation
##trick
hunts
straight
veronica
deep
ernie
deceiving
banker
disrepair
[unused896]
##enham
##rrow
##辶
comfortable
##ully
anger
raider
1960
##ten
reminiscent
PRODUC
misery
wien
strangely
twisting
##rog
concentrates
dug
cosmetics
hysterical
nour
cases
java
sainte
ref
adul
pau
##They
##TO
volunteers
horticultural
teliv
vendors
freind
vicente
elders
##⁸
##Those
##wa
neccess
responsibilties
##iev
targeted
##太
georges
##izing
117
polution
prerequisite
momentary
persuading
chariot
md
liaison
prototype
:
ট
##pan
frantic
descent
Louis
Burger
forerunner
challenger
powder
jul
boon
resigning
##burgh
cand
beneficial
doesnt
goran
doses
tra
popul
requiring
##木
specialising
rpm
abuse
waist
##cological
1300
##music
##×
##eased
48
##OULD
independant
downtown
sigh
subtropical
nautical
ա
ukrainian
##ried
mess
sampson
##Enjoying
interp
##ilet
reliability
##奈
warfare
##seful
psychiatric
burrows
rampage
presidents
coventry
girlfriends
solely
colossal
##aut
returning
photoshop
restaur
fishermen
merch
mutations
##rgy
recommand
##cen
devell
agency
coach
事
##ʿ
1778
cullen
##ologic
yards
##tics
##mler
broadband
1927
hungry
hire
36th
vers
visit
##iing
navarre
signage
frinds
happenings
hight
rbis
supportive
serv
howe
空
ryu
Brasil
MORE
integers
Hitler
indicators
exceeding
ba
##oux
skepticism
remen
voter
coordinates
##eda
aut
North
when
appere
##iring
##wski
structure
melbourne
promptly
##duction
##nell
##王
commencement
decr
delicate
phosphorus
bamboo
##ɡ
burden
erased
collaborate
swim
banana
firstly
bl
anya
graders
suggesting
impromptu
ollie
convinent
##llis
champs
familiar
arbitration
##cap
##mona
analysis
1829
eruption
expect
##ivating
swallowing
thrown
avalanche
##gee
##acy
would
magnitude
changed
eden
[unused447]
338
##olitan
##mnt
reissue
individ
bringing
oval
phenomenon
backup
industr
##Let
[unused372]
riots
olympics
mount
issn
fusiliers
yuo
goddamn
feng
southward
demonst
preoccupied
necessarily
carreer
religions
color
confron
##6th
webber
dante
missed
annoyance
sipping
##mbling
##verst
theory
lavish
dem
[unused964]
##heless
boundary
##gles
##gonal
complexion
detached
mag
ᄎ
esa
mains
condoms
##Age
judgements
ops
sedimentary
marks
praise
encoding
patted
##₇
pga
grammatical
spite
duel
tubes
expansive
skeletal
muted
##kor
shelf
Wor
appealing
telecom
geologic
holly
riga
invested
complaint
##terol
backstage
hinted
squads
muster
packet
rushing
381
##uing
##wo
##logie
inmates
jingle
##香
endowed
jerusalem
[unused190]
Conclusion
500
′
stubborn
macbeth
containers
baden
##坂
expelled
militant
##目
##xia
securing
geo
technicians
cannabis
Que
server
promise
[unused603]
sever
indispensible
avengers
##ndi
##box
##♯
disadvanteges
tug
rhythms
rains
Show
##aborate
quebec
concentrations
reference
arguement
nanjing
goats
##VER
##iac
reacher
##iciencies
intermediate
guangdong
binoculars
jacques
benefits
comme
inherent
wyoming
quickly
gunnar
##insky
ல
1757
¦
painters
##oul
##relli
yucatan
##●
psychiatrist
[unused204]
##ussion
209
##house
[unused537]
assist
truely
conan
scholarships
1760
clouded
school
##ntino
##ghi
officially
sb
onward
helm
ظ
demeanor
ivan
giorgio
decission
##uba
##باد
×
essence
tn
720
unuse
confirm
shadowy
##osis
easiler
glance
aft
##oric
patiently
elle
grabs
basha
planet
##ygen
luther
##istence
##limited
supervisors
synthesized
colony
scientific
##omba
elusive
revolving
vimes
compulsory
##lais
##rie
##rator
grazed
deg
##ices
mum
mir
weaving
goin
explane
absence
apro
suppress
poppy
sane
mens
pep
nutr
pesticides
122
bother
baghdad
##kei
soft
##cred
bolted
Rom
endemic
arrival
##ropriation
##dda
##tedly
comercials
##agin
moaned
donor
exquisite
π
clarke
##tower
##ล
refering
staff
commander
##tee
environe
josie
AT
novelty
歌
##jer
page
laboratory
1967
##rd
pulls
acadamic
rumored
hinduism
##ttering
maint
grange
employee
captains
half
reasonable
##boys
confessed
charlton
inspect
homeland
127
##ス
##स
##tron
bianca
strawberry
##woods
##pu
beliefs
videogames
passages
SUCCESS
##cery
##yt
includes
##bat
habbits
panic
##brand
##unds
airplay
accesible
parana
forgot
##boards
[unused981]
rebounds
derive
shadowed
##anies
futsal
##umbus
##iod
milling
sacred
stalker
mariano
##key
am
drainage
canon
phi
variation
dario
wrocław
##cycle
γ
divorced
sima
Fore
deb
concerned
le
##त
ض
##thest
crank
ein
ousted
packers
reclaim
hurley
sarcastic
equatorial
##え
speeds
hulk
[unused244]
stockton
##adia
##ula
siberian
##nes
dar
exac
##inf
shortlisted
dough
younsters
soundtrack
showcasing
wrapped
cary
paul
territory
adopted
rounded
##erging
##phobic
##AUSE
##tyn
sunlight
hampstead
##vsky
##mers
sac
rogue
seaside
spikes
algeria
##ential
nostrils
individualism
##Now
sensed
allen
districts
en
Future
Inf
##orrow
intimidating
##icy
lily
options
roman
chichester
rebel
odor
assembly
##lia
norman
holid
##umer
##almost
shattered
bronze
Governments
##dation
unthink
##$
rohan
slovenia
coco
bil
##ope
rubbing
[unused822]
mainline
commune
wary
##opsis
trainer
motel
##finder
dat
2016
##stre
duly
det
paused
##ر
disgusting
##₩
dispose
complic
##asy
timetable
wth
##boat
owed
superhero
vie
wagons
##dela
rer
##27
[unused336]
prode
lighthouse
advertized
montgomery
materi
##rys
G
occurs
acquitted
##learning
jace
celeb
courtroom
uncertain
password
##श
†
##⅓
]
voted
emerson
ξ
##aton
[unused669]
explosive
ย
##rin
parks
fled
weakness
firmly
[unused355]
hugging
##wani
stores
doomed
##esthesia
grandma
##assion
##gating
proof
tormented
##too
tanzania
##rew
slit
##cave
susquehanna
mechanically
mounds
touched
juarez
##othing
Public
sensation
268
##His
Life
##kins
continuing
##ourable
`
1834
kira
##ishly
##rounded
hte
##藤
rate
amara
misconception
fisheries
Culture
##mas
difference
xander
HE
##に
middlesbrough
##taken
##ア
critics
Ru
obstruction
described
##filtration
##∈
1716
vac
pendleton
kade
##hh
circumst
theodor
wise
American
##udes
convergence
##abas
submissions
clutching
pregnant
天
sets
parapet
SUCCESSFUL
german
algorithm
nouveau
friedman
grammar
widened
percieve
92
parish
amherst
EVERY
compass
louis
phones
manila
calvert
millennia
paces
thornton
STUD
gupta
sasha
cappella
陳
anim
congregation
implying
r
economy
undes
prou
clay
compressed
##bm
##J
bet
##ins
comrade
acad
birds
##ngth
loaf
##hou
wealthiest
sketch
reuters
nap
genet
##eves
bel
survivor
handicaped
date
interactive
##uddin
ems
tyler
adverse
##enia
hebrew
molecules
shack
heating
enab
weighed
##educated
##uis
##天
virtue
mandated
ritual
[unused609]
napoleon
leaped
EXAMPLE
austria
generating
internationally
##h
##ots
brings
auspices
code
##raz
##面
1975
##nally
disappearance
[unused712]
henry
scramble
taiwanese
hushed
strides
ture
helpless
[unused485]
aires
digit
clicks
ceremony
bishops
wolverine
##break
buddies
##growth
tribe
heirs
powerhouse
地
diminishing
ivy
improper
deputy
##家
gracie
theo
U
niger
mb
##མ
desicions
noted
eerie
engin
ewing
helena
hyper
##kumar
myself
counters
##ב
attrack
griffin
twice
warning
##47
hybrids
termination
##ando
##戸
islanders
bandit
Sucess
##ler
nwa
undone
rit
108
##portun
horde
decre
cannot
##ez
##inic
##priv
lotus
[unused868]
syn
ছ
gloom
constellation
breaks
carrier
differently
miserable
tribute
##rma
height
memorization
##ero
investors
pike
##wei
volunter
1731
succeded
petition
grupo
##km
##dro
tier
waht
embra
footing
afterno
courts
mariners
##inal
supplemental
ceramics
skinned
entirety
Advertis
##ctors
##pee
illustr
focussing
##boro
christophe
revenues
comman
cane
##tized
demetrius
130
cairo
atp
##uck
ther
ː
nob
glowed
outside
starring
peterson
##ooking
antennae
##copic
weston
hurriedly
##aper
contrast
desires
mansfield
belle
##⊕
corona
thumbs
domes
expressway
narrowly
##itudes
ta
downward
spont
zou
gurant
ware
wore
facilities
[unused808]
##ria
stakeholders
marriage
leah
##vellous
hearings
Nothing
trolley
monterrey
##kell
adjustment
Arts
messages
symphonic
##metric
unofficial
ga
Concer
PLAC
potion
##cchi
thinks
##eri
[unused592]
[unused136]
[MASK]
secondary
clumsy
rightful
equality
goes
##amic
##ANT
funny
explained
bohemia
##agine
tokyo
trace
nicholson
natalie
insistent
GIVE
avatar
##a
cur
surgical
bug
57th
tremend
institutional
ζ
indications
pessimistic
franco
oceanic
phr
206
notorious
[unused173]
Urban
##ipes
rihanna
fisherman
activist
negot
kant
##ded
slick
socialize
rr
FR
split
definetly
ringo
Teresa
destructive
early
monetary
undergoing
assistants
ferrer
myst
##ostal
severals
essay
excellent
lazy
pennant
sri
thierry
conductors
vietnam
espn
Is
##live
satisfaction
人
##ule
smirked
arou
##ionship
breathless
shoul
1653
hal
Nearly
##We
screams
##eal
##₎
##hematics
baylor
Club
1623
excavated
copied
southport
dom
##GH
middlesex
turin
##stov
offers
artemis
refr
beethoven
surrounded
[unused152]
berkeley
sarcasm
bred
moreover
[unused745]
studets
offshore
subjective
##ith
dolls
##メ
recognized
gloss
randy
societ
Qu
believes
exhaust
intently
passports
Crist
housing
civilian
##，
award
sussex
flowed
alright
impressive
##aday
##dies
##pore
fritz
Year
azerbaijan
##mian
##ographer
##23
developments
batman
children
bruise
2)
##cieved
selfish
##ities
meth
bmg
##kou
messiah
##talk
##nda
administer
echo
[unused125]
train
speechless
##nob
thrilling
##icon
pv
ene
excuse
hancock
##cting
я
vast
viewpoints
17th
doubtful
claude
ო
watch
remenber
decisions
adamant
##ya
hans
viet
helth
##tila
world
summary
compassion
322
ex
aim
favoring
##ient
##yal
fungal
perimeter
exact
ignition
specialists
}
£5
legend
electron
explaination
dose
##な
##ims
1755
Teacher
conscription
thet
的
assumptions
lead
inclination
1900
##♭
##inally
sector
glasses
entrepreneurship
##‘
##ault
alway
churning
##ducing
##Otherwise
##sos
##pies
squad
##osal
underway
bonnet
##orno
gasping
soprano
constance
baba
nationality
logo
##₈
1961
conferred
wa
##rch
mistaken
[unused400]
##abe
unable
[unused937]
lamp
wast
pioneering
Creating
adolescence
न
lucifer
simmons
andy
haifa
together
nat
kno
civilizations
fant
Bec
hallway
conc
architecture
##ICEF
wynn
##eling
ག
sterling
pru
##cini
finn
pbs
shuffled
microsoft
friday
St
marvin
##drich
harmfull
Unt
harta
##ᆸ
##enjoyment
francais
lod
definetely
isa
hideout
messengers
caliber
##icated
fairy
weave
bates
pounder
contin
mutual
ahl
:"
##ᄏ
tan
kellogg
algae
##umble
ß
natal
emir
##osite
popularity
browser
cbs
广
contexts
squ
audible
wraps
>
街
liberals
santana
shielded
scientifically
##30
wings
casting
telling
[unused142]
harpsichord
koln
inwardly
MAY
har
lars
heats
strenth
overlooking
tyne
routing
ი
σ
##ture
benevolent
broad
##ranty
Almost
appl
clas
detective
masks
scenery
clips
90
vision
photon
##atching
##inator
shrugs
onto
mia
runway
renting
ff
##vino
songs
guarantees
contingent
269
##geny
poss
##ashes
##lton
International
horace
density
neighborhoods
schooner
agrarian
kickoff
golden
genealogical
##heads
quinlan
##efl
hereby
employees
##gaon
intimately
girlfriend
developed
betty
##hur
##litz
kidding
aleppo
ariel
inadvertently
a
divisions
bible
[unused126]
##pal
remixed
##zal
welded
recy
##bright
cramer
khorasan
##dha
zurich
##cise
##drink
slumped
##hett
thay
corruption
##uration
##lux
gardner
##ing
城
##iate
viktor
##4
pope
##9th
atmospheric
earth
ingredient
##icides
framing
##station
happy
helmut
stated
##dner
sibling
##fl
南
beijing
minogue
devide
accompaniment
midfield
candi
##pac
mounting
Hokkaido
beta
reproduce
steaming
[unused976]
fourier
##fferent
straw
三
dude
##omic
michelle
amusement
knowdledge
dvds
suddenly
liberty
testament
cracking
##ef
##gia
ince
genocide
canadians
clubhouse
[unused894]
capitalistic
judging
kiss
##st
Thinking
##enes
##anding
ice
##mate
creeks
ghz
skirts
armstrong
enlar
tailored
marianne
microw
runs
##gate
##astics
equ
koppen
damien
alias
##lford
##sun
commons
Tere
ᅳ
##r
##itates
chiang
hanged
erwin
Germ
1921
rocky
##ihg
lids
##usive
alejandro
republics
applicable
swirled
##+
##week
acquire
##atly
peas
##qi
##farlane
##ines
arr
##定
##cio
deliberate
headmaster
robertson
##ivalent
complet
armoured
##υ
allocated
wondering
silky
hardwood
‑
debris
111
##uous
aeropl
shuld
##good
speak
ensure
##uness
ラ
heavenly
domesday
inclined
##christ
##´s
hawthorne
administratively
allowed
sable
##duct
##cel
vessels
##~
disabilities
unseen
##wy
gr
on
pedal
,"
##bb
pinning
slump
hemingway
primaries
renovated
puzzled
64
cp
kil
karate
##right
chromosome
managed
##ody
Ur
Normally
##iered
statue
julian
surprises
knots
ninth
tidal
highway
shady
[unused774]
##nah
##ous
°f
enhanced
xiii
affirm
##■
sinking
waived
codex
vows
charlotte
salman
##す
##¥
blackmail
##graduate
collaborative
motionless
billions
1692
Cl
##tree
##gie
faster
The
Right
projectile
potatoes
rap
##aturing
##till
##ARE
##.....
committees
##dian
landscape
or
##ese
##uising
##bf
##rce
enlarged
##for
ʀ
Gover
topic
benito
frankish
especi
finacial
underwent
smuggling
gravit
does
headquartered
hercules
##nian
##か
##ka
predominantly
spelled
carleton
thourough
meaning
arrives
exceptions
suject
[unused375]
tag
huh
balloon
##ustr
dilem
##mament
105
fom
equivalent
##iah
dina
prime
##エ
promotions
went
mummy
fue
scored
##tic
conlusion
##iong
##etween
optim
ligament
##lie
##մ
spanning
##isted
[unused766]
london
evol
discontent
joined
aj
shredded
hacking
scheduled
stink
##sege
briefly
wars
fifth
restored
##su
##mics
brightly
psyche
##ieg
##itude
conclussion
dam
fiance
##nsor
orientation
##qua
fucking
denying
##ィ
semester
neighbour
Major
paramount
hilt
##yo
##ades
rode
##ashion
somewhat
Advertisment
ly
reorganization
##ist
dempsey
##viously
virus
frustrating
envy
strategically
budget
shale
denote
Advertisments
##event
lesson
montevideo
acheive
trig
dukes
河
##more
denied
directory
bis
citations
##marks
repl
teddy
trust
ju
contained
##ffy
sewage
localities
Electronics
mechanics
sultanate
ABLE
##lston
##iser
ranked
jurist
Tr
squash
pleistocene
780
rae
serum
convict
professionally
breasts
dip
bop
transitional
restaure
punishment
lingered
ड
redesignated
russian
sentiments
##shine
nominal
stom
connection
##dc
tavel
pausing
##fies
80s
hig
##止
##than
љ
propellers
authentication
##US
midtown
practices
[unused679]
yours
##osphere
##vara
1086
##uates
expl
traps
##rgeon
parliamentary
extra
owls
##rank
evre
##tip
rosary
##stream
cert
ᄃ
premature
hk
bengals
sun
crimean
compartment
prayer
##ancial
baseline
disastrous
##⁄₄
##cing
Sun
##iven
##etta
360
cornerstone
encyclop
Ne
spended
##FUL
transformations
idle
中
gustav
spain
amenities
##ex
affirmation
endure
conversely
indus
##band
れ
substitute
##hil
responses
##道
ᅢ
surviving
byscle
##cha
simple
fae
##Not
##オ
marge
pedestrian
continually
limiting
##llins
stimulate
Nowaday
announ
imposed
##cek
##ucher
##taff
kyushu
1-
cat
positives
andrea
suggested
##rom
newer
crore
##thers
keel
##vite
animals
terrorism
limp
mak
wyatt
##dering
polk
roast
##bered
safety
##havan
surreal
bernhard
747
commen
##oral
margaret
veterinary
##youth
carolina
edition
understood
[unused632]
##iidae
prick
##fr
144
1845
##isson
paper
scener
genevieve
cocepts
sore
inaugural
2026
gotta
cascade
##eger
interpret
##ulu
##rley
07
meadows
dwarves
decoration
warmly
whithout
1724
clues
instinct
[unused971]
synth
bestseller
ues
intellig
seductive
##sky
ole
confidently
amino
viceversa
luis
##going
congressman
60%
##masters
christopher
opt
##ₕ
caracas
immigrants
##roup
##tles
dedicate
superm
##haven
groningen
##icing
seated
Gree
benefited
cardboard
##<
commm
##down
##bation
##gong
archduke
##у
remington
##enberg
adop
practice
groaning
##resident
##quette
fastest
##秀
dorothea
booth
dict
transportaion
##ku
prescott
##cot
##ley
broadly
metropolis
pollard
lowell
##ently
##osion
dun
conf
##社
turbulence
343
groves
non
inflation
[unused101]
ュ
##ifies
bizarre
##ark
##ES
##trom
manip
spill
mordern
relocating
ₜ
species
ப
destroyers
salem
1963
woolf
guarded
grounded
sole
##to
granny
progress
grouping
colourful
publicity
neighbourhood
surface
funs
cricket
fever
ᅧ
nora
section
plotted
ou
seriousness
##pect
alcohol
circumstances
denial
katz
scrambled
J
##ban
brushing
buffer
priced
efficacy
##অ
pedestal
ready
baird
locomotive
英
##As
##llin
bounds
gunshot
landings
resisted
evolved
##shing
##guchi
##ffects
bears
rusty
cebu
exped
avenge
wires
tops
##rcus
sir
gearbox
afternoon
stretching
##rth
1795
##iew
localized
halves
adult
inevitable
##oop
ghent
accross
macintosh
##ologically
papua
##baum
medical
michel
blockade
assault
loves
blushed
##shida
bic
WORK
homogeneous
twitter
twin
##〉
publ
mongols
hamilton
developpement
objected
##ryn
crawl
infront
james
##郡
##usi
lowering
gingerly
##দ
lions
##mbre
resturants
cylinder
sexes
opting
detention
##usions
italianate
tunnels
##miss
##ales
cyrillic
other
[unused682]
elbows
ather
agents
paso
behind
##ideas
norse
cunningham
restart
##xie
eaten
balanced
filmmaker
totally
venezuelan
brotherhood
obsessed
trick
abel
intense
snuck
14th
Vol
##atory
sube
propeller
会
##usa
##derstand
poke
##novative
sami
therap
fivb
excess
clifford
ь
eaton
subt
rye
goddess
##nting
derelict
oblique
altern
controlled
disadvantage
##friend
roc
ha
realms
samsung
abandonment
frontiers
terry
mystical
gaining
##esis
dail
pursuits
##土
imaginations
redwood
##utely
##ciful
tougher
competitors
##physical
1855
##rge
assigned
track
##lovic
##irt
harmony
Working
winston
ducks
contemporaries
responsiblity
[unused933]
drive
unbearable
bahn
##dim
##hide
rocket
nrl
techon
idears
Advert
rufus
##comings
##eve
Nowdays
Univer
renault
withdrawal
##itious
freinds
syllab
slopes
requests
tract
december
pharm
##oe
licking
lar
smartphone
benfits
drawn
##orance
independency
owned
capability
midland
unfortunate
##VERTIS
langdon
starred
helicopter
vip
crafts
State
critical
##folding
do
nielsen
restaurent
™
su
##kian
##ok
ira
protector
stupidity
##eenth
palma
##tory
[unused46]
piv
##yuki
ink
carry
dune
##ट
sin
##xious
区
PC
[unused196]
##rain
client
slade
narrows
coaching
condor
##schaft
simplistic
not
stade
##ources
leaning
ibrahim
instructional
approval
ancest
path
shrine
develops
##urely
6th
[unused22]
behaviors
##崎
##hirub
merchand
tai
organic
antonia
uncont
branch
factions
wry
djs
reptiles
prosecution
zinc
##ourt
discourage
arts
replies
##ovsky
composure
memebers
dec
compressor
##jk
sweetly
bibliography
Economy
##iying
persons
threw
cicero
none
##ogist
Henry
owning
##不
campaigning
Union
medallion
goose
verde
Fr
aircraft
summer
undisclosed
##inci
johannes
centry
[unused73]
ploblem
efficency
desperation
##ade
cindy
footprints
debuts
lifestyles
protests
[unused662]
##bc
punish
stevens
##lide
##zh
parasite
nevada
canons
organizations
271
payroll
##ska
intermittent
lab
##Once
gesellschaft
lunch
obligatory
##buses
nestor
jumps
porter
signalling
##ventional
##weight
##no
westward
everz
meteorological
designed
ancestral
Everybody
coming
350
obsidian
##cene
##version
broncos
Physics
##cit
neurological
sufficient
alyssa
##堂
ホ
infinite
##itan
breton
erebidae
[unused986]
projective
emply
##osi
jamaica
clauses
##ired
soviet
##also
dent
Did
##better
##represent
##nin
varied
[unused350]
arches
avoiding
##ɛ
[unused59]
solidarity
experience
mayoral
##rak
hum
##anus
eyre
knlowdge
licensed
preparatory
Red
vibration
bestowed
102
stimulating
hammered
textures
influenced
jasper
luxurious
follow
antenna
FIELD
##asue
brute
balloons
townspeople
1943
[unused562]
##tti
juris
presided
cartridge
joey
aground
ideologies
highways
Air
jacobite
jericho
hardwork
宗
rigorous
##eren
##uet
downed
labs
exaggeration
unforgettable
##porary
##bush
invaded
parental
elector
##apers
specific
##Be
accountants
atleast
141
shopp
##tell
##alking
draining
cartoonist
##ল
celebration
occupations
tactics
hawaiian
##oes
watt
corsica
detergent
liszt
telangana
BMW
greene
lifted
ottawa
choice
freeing
##mut
##cause
##leaf
newthings
mcgrath
hazy
linen
##GREE
limitations
[unused545]
wins
gladys
##fall
ₖ
[unused828]
##pel
rao
##AP
##ration
##aus
shaun
themselfs
pilot
ɴ
adoption
archives
wal
elegant
feilds
yan
[unused349]
##Similarly
##ice
##rou
supplementary
peson
discharged
lenses
miracles
adm
##onse
envo
pasha
Pl
##ange
ය
restr
kwan
overall
##ingle
Delhi
##bard
developing
sleeping
clue
centennial
nancy
soph
scripts
evolution
niece
advanture
326
interesst
flint
microscopic
helpfull
intensive
mystery
417
china
moth
predictable
centimetres
##lized
sorts
tugging
相
[unused870]
ra
jars
grips
appropiate
148
##oko
hunting
surge
innovating
##cton
via
every
census
pivotal
sweetness
344
vehic
##zy
chimed
##dorff
eth
pillars
##von
widly
delighted
dong
cochin
haze
##ople
removal
##ང
wrath
transmission
const
compuls
decision
issues
##ige
##tc
##nd
##orant
##wehr
femme
タ
##mathematics
##emon
£10
appreci
##iour
brakes
jeanne
[unused699]
clos
peach
##vos
##eley
##stor
##lto
ך
anchors
briefcase
##atic
##vable
Samsung
mcleod
brat
auditor
##andra
wreckage
88
##ノ
Dr
board
##fm
addtion
diabetes
supplies
refused
tablets
schleswig
commute
##ocl
##avi
chapter
##sted
rhodesia
wasn
##ky
lust
valerie
dunne
wil
major
kun
[unused814]
upside
yves
##Also
##petrol
##tos
##titles
bulk
strikeouts
suffix
bingham
maldives
promised
##uw
robson
##OY
menu
ᶠ
ม
throw
montane
whant
landau
ith
##placed
fulton
Time
thru
太
eureka
tatum
princip
##pless
weary
guidance
demanding
nectar
mandate
devolop
lineman
stroked
^
rehearsals
ア
##organ
wasted
##ρ
trasport
voiced
peace
##ɴ
opium
floats
ん
1973
[unused718]
ᆯ
1914
miller
cola
Chinese
leiden
jaw
robber
improvment
##luent
##―
Haw
##rier
student
##ъ
alone
##ध
panthers
doorway
254
stole
flip
1895
ee
extravagant
filmmakers
consumption
pattern
gill
##enty
Nobel
constitute
##nk
saf
[unused832]
aren
viceroy
josef
6000
memor
spans
eduardo
documentation
libr
109
kuwait
##quet
##write
cheating
##ious
crossover
sne
approve
knowledge
owner
company
[unused635]
chemicals
full
convert
predictions
deafening
bartholomew
tried
##rb
##?,
和
##enry
##oer
settled
shadows
genera
軍
reall
stroking
cruz
deem
[unused653]
walker
palestinian
actors
punta
fang
holocaust
##ids
allows
1929
##bles
##ssful
unnoticed
yo
rhetoric
tissue
##turn
stop
apparatus
##oh
Louvre
BE
picks
literary
policies
responsability
400
##itas
contracted
dei
##arm
leach
mapping
myanmar
[unused230]
gre
Comparing
copenhagen
ploblems
Becouse
[unused115]
[unused950]
x
commencing
100%
war
SPECIALIZ
##ᄊ
##cend
##trix
softwares
monsieur
##©
Oh
faintly
dinner
cheney
##ս
uns
sectional
fallen
##those
mainstream
ɯ
appropriately
##jhl
seriously
phrase
indianapolis
She
##comp
pilgrimage
[unused470]
ε
fest
hornets
shifted
##orum
1774
TOYOT
gag
specialize
poe
⊗
[unused71]
[unused974]
stacy
ant
lovely
[unused250]
throws
beau
fossil
gaius
reluct
deck
formed
industries
##brate
fleetwood
wiht
franchises
rotation
enthusiastically
55
inspiring
thier
moan
##zzled
##غ
locks
alps
imminent
崎
employment
toothp
[unused502]
hissing
bolt
[unused49]
coins
succumbed
alon
##visor
##quel
##zers
protege
[unused440]
[unused748]
troupe
moves
advisors
[unused877]
##mute
thus
underside
jail
36
denounced
lashes
stealth
exemplified
##An
[unused405]
dw
##ш
sixt
hovered
[unused855]
##spite
advising
cocktail
Brazil
##tadt
water
todays
radar
cient
[unused280]
death
everydays
newcomers
[unused922]
fet
female
dry
##kow
bouth
hammond
continual
##ouch
##lus
##ck
peopl
unemployment
[unused271]
rec
n
Sir
onther
tanks
rewards
castles
somtimes
Part
COMP
Dar
spectacle
INTER
##uary
hart
##ᵗ
graphics
##nius
mrna
textbook
simpson
mineral
prominent
##ctric
##ously
talking
emph
##TING
queens
groans
##wall
##ointed
jury
managment
##ailand
seahawks
endorsed
addresses
mosques
[unused926]
error
samson
infrastructures
taxonomic
ghostly
nils
wounder
hana
analyze
##Or
1772
recognizes
youn
trajectory
walkers
huntington
slovak
veil
va
accommodate
employed
chile
specialist
huang
##position
##udeau
outs
modes
chamberlain
ˤ
prey
scares
deutsche
labourers
##asters
delta
sound
Sw
breathing
marrow
Y
presumably
release
##vent
wihtout
##study
Aristotle
tease
1764
ی
##stad
##ehan
##IND
insect
turret
њ
resignation
engines
##asies
174
price
pad
knowledg
thom
decreases
##arns
##social
adverisements
catherine
reject
reputation
##ffie
##en
Think
summit
becomes
deportivo
questionable
simultaneous
##takers
yank
realised
stir
childrens
truthful
ร
wait
Three
within
delicious
1740
nba
watered
640
lass
slender
##fe
weekly
leger
vict
##roleum
snowy
typhoon
##ogo
evidence
բ
##lov
##ucky
campaigns
##face
demo
##心
##bits
authorized
prior
directional
##ission
OTH
modernized
antibody
crosses
##ffen
mixture
design
marketplace
1709
##must
##isms
410
Sea
86
ක
rear
##ways
plump
Seeing
fortunate
transmissions
recon
allegedly
envol
[unused326]
##ould
bacame
meantime
coustomer
authorization
human
behaviour
ʁ
bastion
shepard
[unused790]
##user
##imental
cinematic
vanished
romanized
1000
citrus
erich
千
grandson
doubled
prediction
lakers
agitation
137
science
##mium
##見
allready
lend
method
##jan
hymn
fatigue
##environ
trucks
phenomena
seduce
crane
townsend
explaining
##xide
webb
xavier
##overnment
funded
Undoub
yorker
1865
ceramic
疒
marius
##kled
##E
learning
frequency
interception
Afterwards
##pm
caution
monitoring
interpretations
confuse
barnet
定
##grapher
##angu
diner
few
nonsense
buyers
up
micah
iraq
scholarship
##having
whispers
800
horr
easier
##connected
tariff
database
hewitt
adventages
seaman
[unused146]
husband
420
Asian
##mme
##hane
124
tended
however
breed
##rling
intric
##is
##42
proclaimed
year
pre
quentin
backside
##eta
film
cairns
partying
breath
ethical
remarried
mbc
##case
##force
eugene
bob
shine
cantonese
##mmon
mother
##otic
##成
##章
1695
administering
uss
fowler
1a
drama
payload
approxim
ந
plunge
resorts
›
Saudi
##only
##airs
aiming
##rger
##ppet
##orne
fu
##》
stamped
##x
punishments
[
##秋
gotten
miraculous
williams
jimenez
deacon
murmurs
beings
1745
Most
intact
##cable
devoting
318
##ह
294
##uful
##making
thicker
formations
reds
answers
okay
greeted
betsy
maze
##bus
1920
giggles
ロ
cope
frazier
wasting
slug
enagy
breakup
mcgraw
##ts
addicted
knife
[unused615]
ankle
overview
##eran
missionary
similar
numbering
mathematics
296
franklin
treatise
arsenic
plo
races
anchored
jurgen
adviser
becase
already
din
sad
farmhouse
##err
internation
quay
mata
##lace
palaces
sand
surname
##nche
clerical
balance
unlawful
health
boats
probability
Mechanical
hardy
grains
parachute
ি
confederacy
messenger
##rang
Television
steve
electorate
##cription
н
chilean
[unused955]
vane
winner
analyzing
socrates
##ucult
selves
##coat
horse
gigantic
##aca
sanjay
humanities
caliphate
[unused354]
dale
preferable
chocl
•
##ampoo
contractual
Nevertheless
othe
sloop
disadv
##can
dicre
nasty
atour
caitlin
##oxide
##ffle
batch
generalize
sharif
arising
organize
connectivity
exploits
analyses
1788
##uli
generalization
baritone
##ered
lowered
shifts
knowing
borring
adaptations
##李
appendix
watkins
ablity
recalls
bryce
realizing
##CO
hist
worsen
magnate
##LED
agend
emmanuel
##ege
##ism
First
laugh
formulae
##jured
##fare
confinement
1710
owns
teammate
dining
##vely
mercenaries
bucks
##atisf
##ories
voyager
stats
originated
motto
⁴
advice
minerva
##related
completely
fundraiser
confines
ள
1843
耳
andrew
fukuoka
##ation
boy
##χ
Where
engined
ric
apocalypse
##itie
laziness
dawned
ones
##η
##liy
clicking
reallly
##athy
trump
attributed
incurred
##gur
fury
₊
covers
gradu
hapoel
flourish
serene
ofcourse
impart
topological
forensic
technical
tested
valleys
camel
##enses
Real
##uters
immediately
emilio
startup
barrage
selected
1882
courtney
crotch
anticipate
##nist
vinci
possition
##iv
ignorant
870
deprivation
roaming
ventura
##dge
sideways
##oular
##founded
serpent
##seen
layout
##itte
custom
disturbance
katy
mv
ot
signific
venues
##lino
cc
thai
tackle
##olic
[unused792]
heresy
##ising
energ
storey
socially
##rte
bland
beautifull
proportional
##imating
##rman
transcription
arboretum
Considering
incumbent
offerings
##cter
##pply
##taka
microwave
scroll
##歌
unple
posed
##athic
405
rallied
binding
##jak
[unused655]
hideous
fails
##cking
libre
##ich
samurai
covert
TE
dedic
wll
middleweight
##[
##ials
colle
##26
##erstanding
brittle
strength
argu
discus
perticular
instinctively
##ker
italics
tripoli
overnight
##დ
[unused530]
##ructured
moderately
[unused909]
boise
woke
cozy
hearing
murderous
fledgling
arbitrary
regulations
kangaroo
##"?
flashback
dame
reef
ه
printers
stanza
adrenaline
1884
harvesting
wet
##tres
trusts
listings
airspace
roses
[unused736]
mature
rising
responsibility
zen
obituary
##و
tactic
substrates
eval
cyclist
nicknamed
##美
thereafter
cloak
hear
atop
banged
hayes
sings
S
serve
##朝
denmark
cowboys
gems
##jia
orson
jonah
Dis
##chemist
whoa
##gly
vida
sustained
afters
breaker
チ
analytic
investigators
##defin
##nis
pillows
fraction
rc
disapp
♠
exhausted
bollywood
##ո
marsh
354
swansea
##knowledge
random
presume
sting
resided
quot
ushered
##END
transmitted
dorchester
lip
concepst
bitter
coust
commissioning
##vid
length
hiding
キ
suffering
stubble
defendants
[unused199]
blankets
futur
tensions
salon
grande
enforcing
angrily
stronly
##ike
167
##lm
pleasant
##ware
corresponds
infected
renew
restrant
##ect
##igny
wonderfull
principally
##help
run
##RT
##gence
05
competitor
##御
ken
butler
##wind
1945
constitution
swe
residing
##finger
।
[unused121]
lever
mayo
falcon
personel
tumble
##onesia
sawmill
renewal
appliances
healthy
respos
source
digging
seper
unfortunately
lifetime
doubted
diocesan
nods
##gai
constit
mercenary
[unused90]
1837
##mite
##alia
completly
heels
そ
roach
particip
##EST
burgundy
mistakes
##gas
##aration
sinclair
upbeat
pilots
crazed
##ciation
crambidae
Bi
byron
mauritius
avoids
upgrading
headlights
togther
sage
glee
treasury
assassins
harriet
[unused678]
littered
blooded
mysteries
capabilities
bodily
silhouette
olympic
fly
##crats
reportedly
attent
meet
##kata
expansion
##onda
##chman
tactical
recreational
noticeably
sealing
capital
dupont
##URE
lesions
##arly
confidence
##hope
simulate
operas
decor
considerd
##logist
show
peeked
postal
approached
nicolas
plea
##ATE
227
opportunity
rex
##⇒
subsequently
ALL
##ues
##abit
timothy
brows
##20
carousel
images
behav
website
neglecting
exellent
especailly
##ense
fiction
angie
ek
orphans
##☉
lowlands
52
helix
that
diving
counterparts
encourage
cf
devol
recorder
##hawk
##color
stadium
Arab
truman
cut
##frid
leonid
killed
beauty
warlock
##comb
##dents
##ests
satisfying
midfielder
possessing
muffled
##|
hound
artefacts
confidential
markedly
##jects
nyc
##soci
sec
##′
adverts
##、
brooklyn
inorder
suffolk
turquoise
##lip
credits
motorcycle
meridian
ا
true
fear
verdict
macdonald
Alexander
border
hook
##rem
##mt
##ath
[unused381]
ltd
ghanaian
##anum
eno
265
numerous
pumps
suns
habit
Sucessful
lukas
pill
braves
qualifying
feather
bearings
clermont
poet
democrats
enfield
##doing
everyones
##ardo
##EOPLE
committed
uncertainty
rochdale
quiz
grey
illuminating
##section
emerald
anniversary
kaiser
inval
steam
wasp
graham
fumbled
peanut
bends
pressured
reception
##idea
fren
callum
agencies
elig
generaly
integer
##nick
schedule
gl
peer
##⟩
burnett
lauren
derivative
fulbright
charm
##hend
##shan
##ctures
farmer
fix
household
##ourse
thant
dominated
##bir
##rael
[unused680]
molded
interviews
busses
sullivan
Western
conspicuous
##igs
pianist
accurate
dwell
moonlight
racetrack
##ulture
##weed
handwriting
collegiate
benedict
violently
30
##lts
musica
olaf
spell
bothering
sophisticated
peolpe
ere
keyboard
advanced
graduate
upgraded
descover
##phila
teen
tele
oilers
recover
folks
maids
Fin
organizing
extremely
pitches
jealous
agr
⇌
mangrove
People
garden
technol
outgoing
definitly
hastings
##tangled
glimpse
margin
peaceful
bathurst
amir
1628
disaster
##aps
##ttle
mcdowell
protective
sought
.
hero
##The
##ically
station
##fi
orchestrated
[unused468]
militia
##ost
galerie
stony
##where
dissertation
##dl
decade
pro
blanc
pros
[unused57]
##gb
##sphere
##忠
shelters
canals
##ndo
##GRE
##dia
[unused449]
##ishing
##ived
classmate
##codes
stemmed
sv
vita
eton
peol
enought
Instead
territorial
##ditional
dusk
sib
refinery
dagger
singapore
renee
pauline
hampton
gliding
lace
wonderful
24
rubs
presidency
assaulted
wheelchair
28th
access
citing
1990s
ᵖ
maintaining
cretaceous
খ
##80
yukon
##rse
##⊆
seeking
regency
libyan
tecn
braun
Alt
discrimin
chieftain
defaulted
fruitful
intertw
packs
schemes
turkey
¡
##nni
walsall
styles
cuffs
gam
[unused342]
cherokee
atom
Rec
draper
operating
pl
grassroots
##amina
titanic
##kato
integrated
hierarchical
sweden
brazil
jop
Fo
scots
searched
utility
[unused276]
[unused970]
Mexico
runner
growed
team
electoral
brighton
outraged
comunic
surround
stanton
##getable
fuel
##tya
lbs
ᴮ
tombstone
##pass
atlanta
gard
rue
training
compensation
toned
##eology
##utive
##igh
文
spiral
commemorates
##forms
##helm
shooter
drinking
treasures
sling
mccann
batting
rudy
abortion
leighton
wc
306
##OB
##ʒ
inexpensive
vaguely
antiques
statemet
corrup
##md
##our
neccessary
tasked
manifesto
investigated
rivals
owl
liverpool
出
hr
spines
[unused962]
aerodrome
wimbledon
miracle
artistic
distingu
##anged
belived
stormed
restructuring
ponds
exagg
walked
agroup
extracted
grape
##bian
memorizing
##vest
johannesburg
celebrated
offensive
requirement
stad
##irman
[unused722]
Le
##itey
began
Aut
establishes
phylogenetic
2000s
dynamite
affiliate
##cic
junk
##graph
ale
##lav
##nism
basic
tuba
##tine
MY
staying
Energy
bowie
trademark
fullfil
4a
judo
[unused555]
村
##hee
[unused109]
##boarding
narration
##uno
unreal
bre
signatures
receptors
##licts
geological
##acular
##lal
##jos
depleted
presents
shareholders
encompass
dicover
dungeons
leaping
All
arched
##number
define
violated
scents
drury
laced
##zer
##nia
##ᅢ
damaging
talents
##istle
##sso
crossings
holidays
owners
##ods
resultant
shed
##confidence
domino
ashe
near
strained
##cording
tres
thie
##yde
inscriptions
##meo
declan
D
##irts
fade
incred
soap
psychology
adv
helium
heaviest
##″
##司
00pm
lacks
americ
##uan
kingsley
epsilon
mutants
exh
##ₗ
##ain
achievements
##phine
bt
##eki
genius
cell
newman
cement
[unused492]
simil
omaha
##sar
enginner
tau
tian
fleming
zone
bottom
##yat
region
desition
semin
lina
[unused685]
##llation
coated
buckley
##レ
Whenever
##oid
arms
lagoon
##etter
##liness
charred
##tland
dies
namibia
millie
##ि
raped
[unused878]
decatur
##otes
tavern
1913
kam
collapses
banner
disast
yankees
க
poured
sherman
initially
guatemala
intercourse
vet
profess
##夫
surprisingly
[unused84]
Math
graffiti
wayne
vinegar
blanco
accommodated
##erials
[unused246]
ug
．
intervened
##."
mongolia
##icro
##vial
##rral
francaise
##poll
penned
##icipated
cinemas
jagger
strongly
depressed
curiously
##zak
narrated
ans
accelerating
cruising
##don
deci
SU
owen
diverted
universities
peaks
regardless
gunpowder
swami
##aldi
jimi
historia
witnessed
robert
[unused671]
jeff
pajamas
##esp
startled
sweeney
reddish
shandong
##date
commer
##icum
[unused334]
undeveloped
##ח
medicinal
apron
theatres
radha
dove
##ivial
##WE
##frey
##sent
ے
##zation
outlook
##amics
aristocracy
surprising
neat
##travelling
adopting
radiation
doha
ade
trafford
jody
##oper
valencia
##ტ
deluxe
##64
##cs
rayon
##¤
natives
poised
canton
beacon
##park
duties
[unused477]
aquiring
torpedo
dificult
tri
blow
[unused613]
survey
utter
##,"
##itical
baths
reggie
thirdly
corrosion
evenings
defense
II
diplomacy
dunn
pastoral
##ᄎ
insurgency
pathogen
frost
##oor
finest
cheerleading
oswald
marcia
##IAL
pub
darkness
doe
shenzhen
profits
Researchers
##陽
##rti
138
##health
husky
big
universite
blade
enterprises
##ength
##etto
pmid
##八
##amely
leveled
maui
French
varieties
crash
lao
applies
personality
##_
maritime
easton
DIS
stories
memer
2017
od
cookies
economists
proffessional
243
ruiz
##they
ecologists
##unity
baltic
originality
র
cloth
logs
##:
knowledege
sett
frowned
boulders
noisy
interested
ye
jolt
cocky
programmes
vit
inserted
pondered
advocate
dod
shold
lansing
shanghai
truce
equipment
disclosure
denton
quit
swindon
bonn
assimilation
pursuant
traverse
GO
Transportation
comet
skater
uno
vichy
prote
enviroment
[unused695]
##nas
brody
[unused968]
##zziness
obedience
closet
[unused928]
damn
##ster
[unused36]
risking
horatio
##ril
smallest
capped
belives
Int
Infact
logistical
##sful
fetal
identities
h
rapper
peptide
believed
##bilis
gathering
mel
##q
##rates
chronology
tempered
ᵇ
[unused813]
tools
Col
hostage
##osn
now
punches
liu
ع
##unications
##missed
atlas
para
wrought
##parts
irving
190
penang
##lion
happines
arguing
cigarettes
funds
cumbria
ontario
##mets
leap
##stone
##rc
##renewable
their
unrelated
<
damages
families
dell
barker
を
decides
coupling
sue
pedag
##lect
corinne
bc
##ezer
fitzgerald
##ᄋ
vivian
commemorating
##runner
historic
##Wh
##ifting
##ep
malabar
ে
detonated
Concl
Gr
rose
##Indeed
me
##cher
valkyrie
poisonous
##3.
college
declared
reelection
settings
##永
musik
locomotives
dese
raymond
garfield
##ructure
##tens
##PER
improving
witchcraft
situated
wrist
Understanding
##phone
tapestry
##pets
##65
º
decomposition
promenade
##sma
##ev
shortest
overcame
exclusion
becky
frenchman
andrews
##nko
wing
##tow
proff
invol
##tons
goofy
river
sipped
Stud
stalin
litres
Apple
finaly
pry
##ometimes
minutes
##tal
ape
inconvenient
empir
mal
##bow
represent
##ancing
logically
optical
landing
##ician
milo
ा
秀
asahi
##ua
descendants
##class
##ring
1618
synagogue
paddington
Adverst
celebrations
а
jem
intrested
##bbon
fashionable
##ught
inverse
292
jia
referee
anaheim
gareth
fists
banquet
munoz
Thus
refit
courtyard
##国
coures
poetry
collects
bleeding
fatalities
##nesian
in
halftime
southern
[unused776]
##igan
##rency
significant
markham
embarr
##tai
##evsky
256
curled
hollywood
subcommittee
##iking
##চ
##yot
chinatown
##all
woodland
##ulf
purge
breakers
trojan
[unused951]
huskies
##chs
tesla
stereo
##ن
battles
##cles
##oty
ₛ
unacceptable
grimly
##ativity
dark
charities
undertanding
##imes
coefficients
atomic
Soon
##marine
REALLY
ski
displeasure
currently
al
foot
sino
photograph
transitions
##IRE
traditionally
unite
entities
##ν
railroad
Sm
##Pro
trans
pension
association
Specialize
337
meaningful
anthology
ey
##stellar
bandwidth
sincere
revol
mirza
percival
##ₓ
##ч
##media
sorority
suspension
cigaret
circular
intersections
bunny
cathy
1719
##aker
entrep
##SO
##ublic
harlan
idea
moldova
##ougt
[unused963]
throne
work
##land
relegation
Similarly
mechanism
##ource
paints
subdivided
eastwood
spesific
宇
provided
Enjoying
He
variability
amor
magnific
##!!!
##iw
[unused167]
disease
proximity
annual
bitterness
extremly
##NC
legislator
rebecca
##bber
gray
##ple
##pala
analytics
timed
[unused648]
inp
thanksgiving
eastenders
##♥
definet
##cr
toxic
##girl
##dhar
class
stables
1817
windmill
entire
##utes
somethig
intel
conclud
##F
[unused260]
beaumont
deliveries
[unused784]
werewolf
##formation
aggregation
weighing
##ulsion
friedrich
influential
cuts
addressing
##graphs
fam
classifications
item
noun
##resp
knowlwdge
melissa
harlow
sofia
[unused365]
kick
lewis
cakes
ge
##チ
##ean
##Especially
愛
##iented
santos
stylized
polar
##љ
towers
charley
meiji
tucked
kurt
aff
transactions
slate
arenas
ק
saw
##lfare
##odes
jena
thirsty
cere
[unused676]
villains
barred
sucs
ellie
##cre
acdemic
floated
jung
deng
wished
idia
brink
unfor
##glers
commentator
inline
##EO
mitchell
merged
##pes
ง
₹
observe
##Older
##ardless
[unused674]
regulator
##lam
danzig
alloys
incorrect
##By
1972
purchases
##pc
foyer
bouquet
barbed
nelly
diferent
[unused788]
reduces
feminism
neuroscience
##ies
biomedical
breakthrough
repro
##maker
momentum
raise
alth
gable
keeping
1655
##genesis
regulate
hurdle
[unused118]
relationship
housed
rabbits
swept
##verty
spa
domain
nikki
u
pulsing
hold
writings
fish
##holders
twenty20
corrected
honors
spd
[unused35]
[unused906]
fast
slowed
##tford
[unused132]
independent
[unused268]
tradition
[unused756]
successive
locker
renewable
sug
Inter
bigger
concepts
##代
licked
Donalds
##cm
prducts
OTHER
sui
gogh
##sberg
hospice
stuffed
collecting
##ץ
##cool
里
agent
mileage
accessory
rid
##ial
achiev
gained
3.
##intion
titled
gills
No
##inates
rudd
travell
##chemical
##rgo
healt
nunez
##teen
commandos
portraits
mega
##za
1984
##Why
basins
berber
##isks
##cedes
##al
thecn
ing
chavez
[unused919]
sheep
starr
coordinated
##chool
starved
cookie
grammy
studing
##porting
##rade
##iaceae
seldom
conditioning
majior
considerations
##une
chopra
confortable
Newton
##ᴮ
##inct
latest
shaft
otis
blast
auditioned
[unused81]
gall
fabulous
##lma
rashid
[unused139]
[unused453]
##actions
##fus
traviling
exploration
haz
epa
broadcasted
『
across
founder
##ata
hawk
duck
yes
middleton
millimetres
293
disposal
feathers
General
caste
taliban
easiest
rfc
##un
electronically
##rl
fairies
insistence
smiled
handcuffs
漢
##elled
nude
spawn
##ricity
BEC
sadly
thigs
##cturing
pigment
outburst
##aim
inov
fines
devils
##eno
extr
##oog
comrades
walton
##conscious
##etely
affective
dragons
##ifolia
genus
##ₒ
##oma
name
##kova
willard
carthage
##analysis
bedfordshire
splash
20s
acne
chewed
controversy
intends
conventions
impairment
##alog
thursday
cyclones
tractor
salisbury
sentences
interpre
2.
##with
20th
dou
imagen
ud
##mana
zagreb
humane
compiler
apology
Cons
Try
1652
sighed
dispatch
merritt
amounts
##opl
abbreviation
naomi
teasing
intervening
[unused587]
lettering
advertisiment
##somet
nav
Successful
cadets
escal
uncom
wei
tilted
afford
dipped
folly
43rd
##三
eliminated
tryed
opposite
##well
tornadoes
launcher
bunk
MA
1632
quarter
chos
trafic
refugees
compagn
rel
Prog
##bourg
travelled
Enjoy
##jah
##AGE
auto
Trains
provisions
sol
##ind
##dalen
frey
ph
£2
##ights
[unused491]
##agh
movie
inclusion
baptiste
devi
inlet
whipping
shirts
voice
discouraging
comes
retrieve
missionaries
teenage
australians
1756
psychologists
##・
symmetrical
commun
23rd
##oat
epoch
[unused907]
##lik
prestige
streaming
vaughn
neut
franchise
sweetie
##v
dazzling
##ு
analyse
##H
heavy
harmonica
casa
[unused28]
accom
[unused254]
scrambling
pretending
ascending
committing
cigar
occult
tee
and
safty
##fra
chronic
carly
commodities
vascular
[unused215]
endors
bangkok
##eges
knownledge
chorus
randomly
On
##em
bf
contributions
tanker
Cur
malcolm
unf
gong
indirectly
Teenagers
##∆
##imated
exchanges
asa
judith
3
bruins
broadens
ɣ
graphical
organisation
telivision
icelandic
ibn
smoothly
dismissing
abstracts
submarines
anthologies
ェ
glared
victory
barney
Let
##ifying
happ
foods
ed
utop
##aion
beige
wilbur
congressional
hot
galileo
harp
##ELF
Sch
staging
uncount
##____
##struct
##zie
##hom
[unused879]
perfer
difficult
complex
##ake
arteries
catast
result
[unused881]
questions
gasoline
##ador
imposible
mattered
##ode
Dav
##S
saves
managers
uber
attendance
leary
landowner
settlements
bubbles
musical
technological
betray
[unused151]
cumulative
reservations
galloway
courageous
##moto
##zone
Advertising
canary
dedicated
accomplishments
[unused607]
concurrently
##ande
bothered
undoubt
bellamy
competes
##sum
X
donnie
liquidation
moments
1858
##agger
center
spaghetti
boeing
accusing
##rana
crut
moscow
majored
##romatic
ћ
happyness
inadequate
##everything
Com
honolulu
cyril
##hear
govenment
Comb
mitsubishi
also
##b
sighting
Something
##gth
changes
husbands
dundee
convicted
answering
pastry
##mark
romans
compensated
slang
##biotic
cabbage
##oded
390
conor
yanked
crop
Os
villagers
hamburger
gorge
##ima
madhya
Bio
sulawesi
powerplant
rowan
##bell
today
stefan
traffics
ω
bloomington
describing
exchanging
comer
ར
چ
passions
give
##ang
vault
jams
examle
namely
directed
excessive
nelson
##mage
almost
hitchcock
Being
Anyone
##ated
opion
##th
marin
##jected
baskets
##hay
zip
playfully
flicking
bengali
wavelengths
Lots
styled
pack
feminist
gunter
addiction
[unused97]
marched
celestial
holm
etymology
enjoyed
styx
schoolhouse
tingle
brewery
wipe
prints
cupboard
prover
wreath
NEWS
jock
costomers
##offs
lydia
grassland
khalifa
##phon
4th
##il
middle
chalmers
##rmed
[unused174]
conform
quivering
tehran
format
forts
##hiti
lesser
immunity
sterile
mont
elects
nessary
ordained
survives
diagree
examiner
##hone
##ى
lia
cinnamon
leases
settling
hiatus
[unused626]
reproductive
##€
1965
leopold
daze
einstein
composite
exempl
Make
adolescent
commercial
triggered
tree
##tius
kitty
donna
anxiety
drug
facto
##oying
besieged
##ɬ
##ceae
prec
lean
##techn
[unused436]
how
medicines
##change
lara
expired
tagged
ang
[unused704]
yeomanry
accust
sparhawk
scene
[unused359]
huron
patrols
dynam
chloe
##ndt
arcadia
mediation
illuminated
concider
##cor
whay
prom
tyrant
behave
histoire
saturated
##iance
dani
elabor
Bas
tinted
218
citadel
maine
populace
gettysburg
##dot
toast
lifts
tell
forks
flagship
alf
##ammed
ত
mcqueen
business
##lga
す
sediments
bog
[unused733]
##WORK
nina
fries
hilbert
##club
##گ
retreated
[unused531]
fuji
##alls
towed
dennis
celebrates
fm
exams
##sier
austro
carefully
customized
subjets
bruised
audience
College
unmarked
Lin
##iest
##ensive
wilder
figurative
leaded
commenced
judged
parcels
torah
answered
良
attic
volunt
shiva
Adv
##nai
acton
##rating
unfortunatly
[unused511]
challenges
##45
crusader
subdivision
courier
highlighted
canceled
##bol
countryside
loudly
tasty
denver
##ヘ
##apear
legislation
munro
croats
consequently
spokane
opined
mussolini
shiny
rotated
aquire
firm
defect
newtown
nominee
kari
persian
wireless
claimed
bite
##40
matrix
awkward
intricate
emmy
persisted
gladly
blah
Among
##ல
carvings
titans
##ah
apt
##cially
sparrow
transporters
metadata
screw
ts
##uld
clearing
[unused899]
hailed
metre
##tely
equipments
vul
cute
45
wade
##gt
fian
mostly
mccartney
casper
stabilized
beckett
73
collar
cipher
imaging
williamson
july
77
bubbling
inturn
##oka
##ability
##itional
internal
regan
jenny
pixel
cavity
##hoot
erect
physiological
&
[unused987]
grad
restaurant
##powered
accademic
980
ʳ
crowd
ruling
Mor
book
audrey
roaring
boogie
polite
##off
liberation
occurred
remaining
rese
shell
##ou
[unused72]
Older
##ometer
reich
enrichment
rte
##iers
adventage
dece
Just
fundamental
spot
##ws
calculation
fle
##ocked
[unused23]
##ville
ᅴ
Elect
403
pseudo
inex
trials
gan
barclay
grinning
森
easily
diem
emily
brown
ljubljana
englishman
##ongly
gru
ptolemy
museo
pyram
harvested
lehman
##tric
bieng
unsuccessfully
innocent
queer
ske
pollution
phoebe
方
[unused309]
##raj
[unused474]
15
luc
bien
meets
beautif
ன
##tang
toefl
improvised
dc
intercept
disqualified
becaus
##zcz
navigable
##fortunately
oppressive
cracked
י
adler
pres
sparkled
##tling
rhineland
booking
bureaucracy
conside
##ividu
pleas
suarez
##ieri
ajax
enterp
lankan
blessings
electromagnetic
rebuild
stops
bey
plush
flow
belarusian
investments
expected
##ས
##gged
interrest
traits
weeping
##com
upland
##♣
##tsky
exposed
compliment
##carbon
brandy
anchorage
prelude
[unused427]
gora
shrinking
##oza
wright
exagger
propaganda
cuff
perry
disscus
尚
##pling
targets
growth
wolverhampton
Looking
stack
tunic
friar
生
ares
##ja
paige
polgara
kinds
##veda
pinned
shadow
mode
口
ethics
particularly
simeon
iphone
exist
ants
wandered
entries
##cle
edith
who
[unused261]
cherry
Ph
cuisine
backg
queue
jorge
georgie
documentaries
tobe
##lex
##science
sounded
inferior
securities
saxons
inc
eligibility
sneered
##bs
##ibly
##星
mentioning
√
##bbe
mcnamara
##Our
learnings
denny
luigi
vis
burned
thermal
dyke
hoarse
1629
somethink
epis
rothschild
##buy
marriages
buren
beatty
excl
##gnon
fortified
##ャ
snowfall
whistle
thinner
##tor
fig
correct
##udden
stumble
tun
##rran
Doctors
sammy
encountered
desc
authenticity
sausage
drills
##belt
sens
pulled
peacock
trully
indigo
##nge
wealth
357
[unused278]
gap
accidents
mythology
roland
shares
⁵
740
unearthed
invalid
##scribe
##St
[unused394]
ike
heading
modify
##ING
diagram
152
sediment
##gned
thank
oklahoma
barrier
grind
sampled
frustrated
##σ
und
##asse
duchess
##ད
##tures
hosts
##ooped
##ife
##iii
forcus
saxony
pointed
honourable
wits
pilgrim
facilitated
psychotic
rounds
destruct
familar
mundane
弘
##ANS
tibet
peering
islamic
oaks
##erial
##irable
stalked
##uits
chilly
##cta
##inia
##cies
edible
jet
##kit
##ensible
[unused982]
wryly
অ
primary
sexy
capt
craving
creator
inde
##yth
flowing
pray
clutch
noctuidae
coordinator
offices
[unused293]
baker
##空
谷
##rified
國
385
333
producers
old
conce
somalia
ր
uppsala
sonya
##invent
resolutions
mothers
surroundings
mans
##afe
rosewood
torres
adert
radios
ᵏ
Wa
regular
compilation
##yan
polynomials
arrows
whitout
[unused105]
stockholm
brit
vogel
wrongly
revise
un
aeroplanes
tracts
preparing
mackenzie
comprising
greenwood
crazy
coma
break
##ɲ
##ifference
attachment
turbines
力
software
lair
regulatory
oblig
##pacially
engulfed
##anger
poll
nickname
##straße
Management
##enezuel
##昭
have
##walker
Spanish
debra
outdoor
versailles
Colom
warwickshire
gaga
norfolk
debate
contries
discreet
divides
constituencies
goodnight
戸
marijuana
monsoon
regained
concentrate
##ossa
gases
fen
geometry
recovering
cabin
giggling
mountains
ub
[unused889]
##ilding
wear
##ders
730
boundaries
##民
##vocation
downloaded
cambridge
shen
##0
researchers
sutton
wizards
CONCEP
endangered
##OME
weaknesses
[unused513]
contam
maxim
岡
##ddling
##torium
[unused140]
hut
Growing
##ה
countless
1773
springs
##ctive
##erior
cdp
##lt
gina
traumatic
provocative
nons
##gano
##eder
##{
ろ
criticised
devlop
unfair
wildcats
ம
hendrix
smelling
jacqueline
crowed
childbirth
instincts
sq
marathon
##Y
##wine
##dist
99
statues
amn
##ream
##lles
mughal
jar
##lellan
Humans
##ian
coll
##inian
##mberg
##academic
oliveira
secretly
[unused759]
kite
dietary
johnson
##pec
designers
ι
polish
##yck
##あ
contender
##ں
between
##cedent
仁
nationwide
##ood
basis
##rend
pf
21st
continous
##adi
undo
[unused99]
turbine
overcrowding
walls
satisfact
anatomy
calculated
accid
stench
##zoo
domed
olso
facade
italian
roche
facing
##amo
Look
graceful
##IL
##ache
shampoos
costumes
##tain
solids
specifics
anothers
encyclopedia
##ationship
zimbabwe
acquiring
curtis
##hg
alderman
cpi
removing
##bel
pyrenees
canucks
##kel
##rish
dioxide
1621
##hima
oceans
virtues
stiffly
constrained
Forth
##ru
flynn
##idae
dramas
mca
##verest
conceive
console
##lc
mitochondrial
##lass
cardinals
bulging
spraying
scandinavia
##sir
diference
nikolay
armour
cu
snapping
renow
hunan
converse
brendan
warrior
cups
hopping
swans
presence
knowlage
consulting
youtube
child
volumes
shapes
accurately
freight
backs
##tility
pioneer
##illa
₀
cant
superhuman
[unused479]
daisy
packaged
eine
ved
##tham
402
hesse
enrico
bachelor
district
maru
easyly
footballer
embracing
Two
bois
geol
##เ
##ulpt
deepened
\
grandmother
##ケ
##iage
kowledge
patents
strain
##ified
raz
##ustry
refuses
##duk
revered
reci
reserch
thes
having
accomplishing
1889
db
##tead
next
primitive
##pine
hanoi
Coca
traversed
plantations
##ament
Product
##erus
##ar
rendering
[unused532]
darling
breach
##zan
prototy
day
rubbed
##leader
Fact
[unused598]
##cular
deny
recruited
newmarket
atoll
offs
utopia
##oran
shot
proponent
##eto
chevalier
##econom
journal
engraving
し
paramet
truths
communitie
Industries
guinness
crack
illustrated
singers
top
muttering
withdraw
karachi
bing
routine
locations
kyrgyzstan
charge
takahashi
trembled
hectare
predominant
condemned
Mc
##́
reece
endanger
sunni
1689
##bulous
retain
cents
reson
medium
wellesley
depress
##course
bypass
ruining
humiliation
uses
##福
[unused70]
625
stars
##馬
brasil
specimen
##link
petite
##omi
reflexion
sweat
mis
##zyn
amplified
sheen
##hae
##ভ
pinch
ि
underg
321
interfere
knot
nitrogen
##Donald
magn
responsibilites
detainees
rourke
recommendations
vibe
spices
,,
necessarly
##Instead
rodents
760
misgu
##kari
intersecting
vegetation
##acause
illustrate
##gener
##udi
##hering
kingdom
fellowships
Gandhi
##onis
spilled
consultative
ninja
heard
wilson
##ulia
lcd
##py
##rar
letter
curiousity
cater
##zai
airs
widow
nearest
petals
233
2010s
lift
synthesizer
##ressing
notions
partition
##efe
181
acade
bombing
biographer
##riated
[unused116]
##ᄅ
agricultural
##LD
they
Someone
##osh
deve
audio
miss
possessive
##ini
grief
trek
tourist
Academic
journalist
##gman
##cz
treatment
ability
fullfill
humiliating
feelings
ᄊ
boarded
burnt
##pis
dressing
##ann
officials
prakash
##rim
rasped
slated
dis
Companies
sourced
##En
##ensions
##speed
##₊
wesleyan
ই
[unused884]
##onus
##hana
douglas
detector
lungs
hungarians
bumped
why
1899
extinguished
##holder
lasting
ensuring
##田
happiest
##pment
silver
##iere
maia
saxon
1924
scripted
##etc
osman
341
phased
educator
nationalities
##gage
piston
rey
Cop
equestrian
cao
Example
##O
uttered
forests
knoeledge
dollars
##gypt
calming
thereby
proclamation
hiring
unc
politician
payed
permitted
cave
collaborators
mang
[unused802]
sympathy
[unused122]
##undred
ENJOY
mcgill
##ulton
##MUN
wellness
[unused290]
Latin
prefect
limited
lyricist
fable
vaccines
##Z
enth
monitor
richard
##dule
harry
festival
inte
##rber
##arence
ceremonial
fontaine
barlow
##ourage
##fashioned
topice
mexican
might
freighter
derek
##hill
[unused838]
##sim
sunset
university
To
##each
ok
sm
##secure
reintroduced
##tle
composition
[unused551]
explorers
indo
lasted
greece
specifc
##hei
lagos
agenda
declaration
lear
##iro
chances
manif
bolivian
suffic
advised
jonathan
bor
esteem
##≈
governor
⇒
contractor
1910
cust
defined
龍
Som
verse
27
powell
intent
Needless
constructing
playoffs
[unused768]
[unused606]
elderly
[unused618]
athena
philippe
##cp
##.)
bandage
##llow
frustr
irr
calculate
illusions
##ᆯ
kota
tirana
exagerate
ur
##venor
sweatshirt
##区
revived
nightly
##icken
islamabad
Creat
sears
neo
solomon
largely
IM
fortification
independently
rogers
##apple
##Oh
creams
cyprus
intelig
saxophonist
dare
distinctions
doin
##sty
lebanese
##Because
##ber
adjust
Michael
##rno
resp
##DERST
terrace
##NO
cadence
##say
217
sculptor
brightest
[unused775]
##bacco
including
##食
1797
Once
bot
loose
future
socities
Tom
tonight
##gram
[unused504]
maturity
unbel
hamb
sultan
descend
173
quarries
quest
occupational
improvisation
##Everybody
bid
bailey
rankin
concluded
collapsing
##most
point
agreement
[unused224]
##furt
Concerning
stuck
punjab
[unused576]
[unused228]
commentators
disputed
ivory
monday
ms
[unused96]
brisbane
1853
##ram
perished
repay
sim
##''.
moose
save
travis
haggard
##ign
explor
privileges
martinez
flair
obsc
sudan
yanking
hindus
##use
[unused129]
stung
agree
brilliant
fresno
##Bas
##fact
convenience
amc
₎
[unused758]
crutial
cabaret
indeed
##ore
##iga
##भ
inventing
goalscorer
wince
##More
att
##wise
##nikov
communic
##也
amongst
simpler
tribes
outbreak
undertook
##xin
##pers
nicola
maltese
blame
littel
convent
##ik
From
1996
nightingale
1805
##rapid
interstate
ravine
stepfather
rappresent
contestant
sloan
##Enjoy
Subject
marche
howled
θ
goodwill
lame
found
jain
##本
poked
lang
[unused408]
cautiously
harrisburg
begin
1818
##centric
##!!
chatham
1654
forget
haste
##estion
stays
Oil
alll
escorted
detail
##planned
firends
linguistics
##llon
outing
##anguage
heaving
hidden
##wice
##も
maris
parting
grave
adolph
[unused143]
longer
crawling
##rso
seller
grasping
beth
##ف
##zu
dexter
##¬
certain
Coke
reactivated
vladimir
swords
##ও
ј
##hoe
conditions
spotting
diary
behavioral
propably
bicycles
torino
710
Galileo
##ivable
birmingham
frankie
net
polls
axial
scratch
attit
##ACK
regatta
##llution
##inces
##mbled
ruined
Talking
##list
called
gage
welcomed
##hop
fiji
##build
bangor
intr
##rea
dialects
survival
servicemen
beh
ortiz
industry
370
ᴬ
safe
rowe
ʰ
cher
115
cancel
sahib
peel
hack
neces
elegance
dayly
##च
nes
##antly
##mara
##ך
nit
curls
dont
horm
lunged
cemeteries
[unused817]
blog
overshadowed
displaced
##voking
##vin
nexus
←
brainst
shudder
willis
os
dependence
##iks
happening
##‚
cordoba
[unused967]
tobago
shipping
智
terrifying
shall
[unused345]
scraping
##aions
solve
mornings
attache
mcdonald
##उ
hall
Wh
groove
lynne
##usb
kochi
pathway
lanterns
resemblance
（
advertisemets
subgroup
##leton
Unfortun
waited
urgent
though
laundry
[unused169]
cleanup
volleyball
forced
witch
##icul
baptized
galway
##entions
associate
accepting
##wled
tu
tp
##vision
1827
##ayan
roosevelt
Man
##hor
arterial
overs
reissued
##rous
chalk
margarita
##⁷
ヘ
kings
congestion
hearth
##√
underst
Comm
##sitor
debatable
Social
Your
cited
##horn
ass
greet
##ction
maud
colts
freshman
through
solitude
ransom
[unused210]
honneur
##inte
##lier
Give
incidents
##ced
earle
##Rec
temporary
[unused495]
##ء
sonny
jeep
diagrams
##ilosophy
primetime
255
sabre
compel
habitat
kazan
[unused110]
privacy
cash
stored
tripped
##cina
caravan
[unused67]
fitness
atlantic
##pper
qualified
austin
upgrades
##dh
[unused85]
chart
teach
builds
hm
coal
amelie
##antion
Happiness
v8
##allity
ר
assessed
shaking
deutschland
winery
erosion
cooperative
len
tatiana
glacier
trey
Mart
##leves
aurora
##rwood
suzanne
##zens
demonic
taxpayers
garner
beeing
differing
##ddin
##rum
wisconsin
##之
removed
grazing
familier
shirt
[unused696]
##ving
protestants
turned
fees
##ы
##igraphy
breeds
ascended
kgb
##lty
ships
10th
##ening
plying
total
1758
aerospace
tolerate
wanted
[unused106]
essex
[unused451]
412
##yla
unity
autonomy
disable
recapture
sorbonne
wheeled
members
balcony
pavilion
env
uplift
##™
needles
contro
freezing
inspiration
bruises
910
....
searches
reforms
##Everyone
##─
inhibit
silvia
##hort
##vian
locke
communty
rebellion
bauer
lid
expencive
##verage
sar
zipper
usage
##光
strategic
cheers
",
mixtape
imprint
rovers
flexibility
##ended
resembled
##thern
homicide
exchequer
##ints
dicuss
slots
shortened
ᴺ
274
lines
shrines
##Tour
productivity
loaded
##awa
##lib
1860
##aje
vague
juliana
tenure
##uting
demonstrate
apes
informed
enr
testify
assumes
##bill
##fer
mater
occure
monot
petro
##cian
gregg
age
rubble
manifold
maharaja
protecting
influencing
間
##roved
forth
testing
##nerable
Fort
syndicated
pereira
##ivo
iq
shake
decrease
exampl
soloist
spearheaded
##dar
kenji
##renal
adapt
##por
gar
designs
grades
handed
bert
sabotage
ष
##պ
maid
unauthorized
scotia
burton
dawson
##l
bio
##ichi
##OUGH
paolo
plane
something
lads
altogether
dictator
##wari
heather
dominates
gp
##dre
##ink
infrared
attribute
avenues
harassed
神
slap
brisk
punk
interpretation
1863
enhancement
gold
earning
##lev
repression
##estra
greasy
berwick
##chen
ultimatum
Great
bohemian
##aith
ulster
confirms
##twined
colleges
membranes
[unused943]
parades
depths
##hus
malmo
foundation
intensively
badger
##15
##nna
tsunami
hamlets
falcons
##erson
weigh
lobes
welcoming
abt
##lase
generated
##lar
destinations
formulated
molina
piers
##endid
equity
perpetual
British
trailer
##flies
surfaced
La
emerged
[unused294]
⽥
tattooed
ssr
mart
proposed
things
scott
tempting
##ophone
faye
grady
nakamura
[unused298]
chunks
td
schedul
sicilian
par
steppe
##ldege
Summing
plants
undoub
อ
staring
bk
thumped
indicative
allan
##ᆼ
calabria
poor
##IFIC
earned
semantic
accountable
coordinating
dutch
luciano
Honestly
ashland
circulation
belonged
matteo
Cola
waterfront
buenos
higher
curb
yellowstone
terminating
biologist
coustomers
bret
hadn
##fied
B
##swell
81
##ronia
kon
##mora
##sport
arturo
##patient
possib
infer
pretty
##bbling
abolished
physically
guessed
Futhermore
##3
benz
gate
hope
rained
according
shores
passenger
steep
##rable
upbringing
##mmel
##tera
nostalgia
accelerated
perkins
clan
seo
##raham
grover
alexandre
conserved
श
##vi
dwind
career
##ustion
intruder
tey
coincidence
superfic
implied
infrastructure
frowns
superstructure
ᄏ
ethel
meters
ul
ᵣ
christian
##ft
hosting
antics
jenks
swung
striker
criticizing
chuckled
guerrillas
reasons
appoint
nino
Admittedly
fluorescent
gesturing
commuted
##iously
peru
##ISK
achievement
island
build
involve
british
##At
performer
successfull
basement
##neer
##rmin
₂
##=
joanna
beacause
typically
neoclassical
interceptor
cheerfully
oath
picnic
strengths
request
omnibus
predator
##dale
violation
barrio
TW
clawed
farewell
exaggerated
counterpart
asbestos
##fficient
emot
##ruction
Further
##dder
understant
promotion
circa
benin
aunt
again
oppin
squeeze
maximum
##北
ronald
vocabulary
sell
disneyland
kaitlyn
##trics
domenico
trickle
Youngsters
litte
coined
##dhi
अ
percy
##put
treason
##ony
translation
inforamtion
Reasons
29th
buddy
demer
cogn
tech
##anish
gambling
dosen
responsib
netflix
whereever
rolled
campbell
##OU
awa
[unused560]
fin
2008
[unused737]
lifeboat
WOULD
eclectic
judy
nfl
obligations
##car
##xing
##xa
touristic
巿
eu
##matic
dominating
candace
ling
madam
mendoza
bone
deadlines
reli
rafting
deux
canadiens
##young
genious
##sett
wanting
##ivist
anx
ferreira
constantin
##eing
eater
swamp
##nted
lecturer
antarctica
feat
arousal
gangster
##levant
1830s
chamber
motorsport
deposits
bonus
factor
foss
identification
evaluation
doctorate
coms
##Usually
tully
condemn
be
Self
named
experiences
propag
fleeing
##urn
pushing
abruptly
ﬁ
tehsil
cringed
carbonate
crawley
genration
rejecting
listed
##ounded
panel
ɹ
metropolitan
reconnaissance
countered
scorpion
##kura
tumbled
bending
miriam
praised
##mant
thickness
stiffened
[unused172]
marketing
supervision
##itals
salad
pian
mann
sparked
accompanying
##aire
reappeared
welcome
swarm
effecting
forest
##Moreover
mattress
Medical
œ
throwing
worm
seek
preserved
jensen
##tung
invariably
intellegent
Z
##ston
##gement
onion
Mex
##facts
honorable
awarded
##High
##ays
[unused824]
fletcher
cache
here
##graphic
##chant
highland
stein
obtained
usd
planners
mgm
ret
dimensions
augusta
comming
evening
expanse
##joy
expir
umpire
##business
resonance
##ciety
martinique
advertisemet
usa
freddy
achieving
##rift
respecting
selective
larsen
chaos
##crafts
mandal
layla
ins
linguistic
plans
interpreter
playback
##ি
universe
certificates
加
1808
congregational
sewer
sousa
zimmerman
ordered
lowest
highschool
halls
##ssi
effective
spirit
ほ
##oin
trois
estrada
totals
##ned
dign
##ailing
hu
tired
demolished
cords
plant
##ite
美
seating
lodged
contiguous
##ণ
zeal
1540
provider
##encies
carmichael
segunda
ow
stret
newly
outsiders
enables
thin
especialy
boyfriend
##and
bread
chairs
marlon
memorize
columbia
→
reserach
##respons
magnus
scores
##leigh
##ane
invites
##apper
dubbed
sells
sean
formulation
cleavage
gentry
israelis
watering
phase
rouge
ill
malaya
[unused297]
recruit
ravaged
hap
kept
ultimate
Espe
microscopy
handball
335
shang
columns
oral
space
harms
gallant
##berman
[unused384]
pinto
vomiting
stronghold
whats
jens
ह
warped
ways
checked
malaysia
runaway
rounding
virginia
Whether
##bbing
[unused885]
hauled
leningrad
1940s
Personally
trance
長
ethiopian
##student
Various
##hol
せ
325
consumers
##wd
comparable
tenants
lighten
washington
negotiations
##card
salford
##里
damascus
##ecin
dozens
sociable
##ร
##bina
fog
replacements
clearer
battle
understanding
##bulary
##gon
prolonged
##bner
##olog
##trans
longitude
jason
stron
##fficult
waterways
rescuing
##aybe
applicate
cal
awaited
spit
[unused719]
noting
stopping
dishonest
necces
photographer
impor
##ette
piazza
##ality
insulting
consecrated
dwight
absol
##money
ourselfs
charged
gasolin
elvis
bergman
sportsman
##iss
jonas
forefront
explanation
##cean
sufficent
defferent
era
##lessly
ledge
##5
pipeline
video
securely
##lene
xi
##gat
leader
tyson
retiring
deputies
holt
pilgrims
priestess
flatly
transcript
##tched
doctrines
##fat
##gling
Africa
tracked
horrified
ensemble
putnam
grid
त
rivalry
knelt
spinning
fiba
freaking
yates
eighties
voyage
telecast
Rome
mos
earthly
##ween
1814
situtation
fernando
achieves
##emy
mortally
assigns
fan
unne
##renity
swaying
##ciated
##creen
##isit
crook
subgenus
advertisements
interrel
##watch
memory
##下
##uti
garion
legislative
disagreed
##eple
Hyundai
##wara
##rod
educated
##rdan
clinical
conspiracy
cock
MB
fluently
directors
mechanical
hodge
##unicip
BETTER
sesame
##რ
manor
adultery
jogged
whitaker
wept
1703
mayhem
strategies
₄
islam
brittany
sienna
constituency
albany
system
enlarge
鈴
glide
reigns
looks
gabriel
faux
lugg
[unused713]
spectral
245
transpotation
ص
tales
weekend
anastasia
chase
closure
crescent
manipulation
##entials
cadillac
langu
moths
survivors
##oth
popularized
fry
proffessor
##wood
witnessing
grimaced
memorising
Donald
advertisemnts
##uso
installing
buried
mk
oppurt
monop
kayla
convoys
gretchen
doctrine
strictly
warsaw
leaking
1948
demostrate
##iual
263
physiology
##koff
decorate
imm
downstairs
##acent
julien
sardinia
tapping
reseach
accompanied
anatomical
establishments
steadily
veins
omitted
smeared
donnelly
ე
NGO
λ
herman
zoo
##ined
windy
113
intersects
cooked
YOU
##沢
##cos
block
seals
deported
##iler
gentle
maize
comap
1958
comparitively
balls
##ester
assert
advant
艹
amp
extensive
giro
along
##rix
##gun
##Se
##tructing
innov
raf
screamed
ʐ
lots
Ofcourse
supporters
##which
offering
##ذ
##դ
317
cam
Perhaps
venom
functionality
disks
##cific
although
barbarian
ganga
##hyd
ecole
waiting
dubai
bathed
##rini
ক
1909
nightstand
chants
##inus
##vert
##ivism
##reasing
undead
wrestler
halp
flee
seventeen
lance
##mith
occupation
marking
embarked
comf
followed
lived
handicap
contributes
madrid
sidewalk
##g
blanca
##written
##sal
mahmoud
mika
##diment
##EA
saloon
zachary
34
fallon
bananas
REA
stills
##ᅦ
⁻
prosperity
hawker
suc
consonant
##yman
rf
griffiths
murderer
orchards
diagn
melvin
hendricks
distroy
79
rocker
##istic
##pl
trinidad
mandir
possessed
##te
tugs
##dating
railway
rat
##cih
[unused969]
reluctant
##广
##ENCE
tide
commom
1850
barcelona
getting
missions
consultancy
f
##It
##rad
amazingly
ely
banks
##gren
buffet
ALWAYS
magic
farther
interface
exclude
gottingen
Risks
##IF
henri
##sg
##hawks
tast
##lding
vicar
##DUC
##fin
condition
motor
mandolin
ley
vial
Spain
##usting
##μ
travering
##olved
elected
contenders
2014
detect
residue
##ave
pending
saxe
##jun
gazing
##ович
chronicles
abundant
clinton
prague
gifted
##wr
ᆷ
megan
calcul
squire
capita
egypt
##հ
##シ
extras
exports
lone
##∗
doning
music
##mer
millions
Joh
##uid
hundreds
findings
instruments
plastered
procession
##SI
pistols
coefficient
CH
chal
##nst
Microsoft
##test
lured
especific
1950
ן
undert
become
##德
##othes
39th
tumor
##lig
fulham
##vinsky
prejud
##uca
competitiveness
sep
starters
consecuences
rushes
##cock
##fuly
gradient
##我
1989
1950s
mon
kendra
halloween
##based
danger
##rave
accumulated
##traveling
tuned
eff
misun
##los
amphibious
necklace
astronaut
nodes
concurrency
resons
sure
1986
1713
communist
lynn
##”
ambassador
include
haveing
caucasus
##ssing
1603
means
recaptured
kylie
televison
planted
teens
differences
sermon
squirrel
2000
mentoring
to
nuevo
bus
amen
properly
pouch
desease
Albert
bryn
echoes
[unused17]
gallagher
宮
pearls
##such
fiancee
argoment
[unused0]
dazed
graduates
attempting
2020
##raf
knee
censorship
⁷
applications
##Ideas
kahn
q
christianity
hampson
cassette
[unused340]
pier
##cology
arrangement
aisle
jew
exchanged
geometridae
vist
##hel
dump
[unused377]
##ri
##ither
whatever
her
{
##rary
disap
romani
dancing
3000
[unused471]
##tock
gordon
referendum
laguna
thaught
illustration
##cats
introductory
lucha
iPod
advertissements
@
##gor
155
##er
maker
##itely
lessen
nowaday
effortlessly
339
searching
sparks
##東
grinding
list
dropping
##ffs
ッ
mormon
fo
cy
arson
lending
##ac
bett
hills
ء
##pur
installed
ld
##hen
skills
##ias
lowland
##nged
##仁
overgrown
##enter
শ
##gies
instrumentalist
compet
dissipated
hallways
##itate
kazakh
##ibar
flutter
almighty
##oed
##usts
dressed
mischievous
channels
253
speech
##gui
samething
ck
##ash
##ξ
hesitated
Countries
rajasthan
atv
reply
##inees
locom
CPU
werner
joyfull
paved
abe
lilith
weeks
abide
Beyond
wiping
commonwealth
illustrates
pierre
##anks
boiled
hooves
medal
horizon
##renew
##ve
horizons
livelihood
respectively
namesake
Today
often
titles
frescoes
camped
newton
barons
writing
##kai
prices
elaborate
lai
tate
dash
rune
##ghan
##dgets
##ughts
campaigned
##bay
endurance
outskirts
mercury
##isting
##lins
rapidly
neck
stressed
yielded
geoff
##gio
etched
radius
harbour
miles
humanity
corbett
hog
TIM
##ughter
goldberg
scenario
##nza
chanll
displaying
rooted
let
[unused789]
a2
##dm
##develop
morphological
terminated
folds
pomerania
felicity
volunteer
informations
effort
quoted
##lad
documented
##anied
surveillance
nebula
##icking
jo
qual
albanians
##gger
##氷
##OT
Suc
compreh
preservation
haunt
based
[unused853]
nine
warring
##ʻi
1926
##ieth
stub
shape
Ancient
harshly
galactic
luke
potato
soccer
prot
criminals
difer
chancellor
##mour
cow
shirley
abolitionist
##Cars
wah
brant
lurched
winners
sacked
[unused438]
bladed
stadion
##ego
AGREE
ব
帝
##ght
immersion
##entation
flew
bars
MONEY
drying
bought
##uall
##itement
##cipl
consentrate
taxis
##elf
##bla
multi
[unused580]
entering
townland
shots
##roving
crest
##......
researchs
exploding
techn
##oud
lulu
awarding
##dened
gandhi
##ific
##inski
##icular
considers
trails
becomming
pitched
suspected
##lary
picked
priority
##κ
spurs
unavoidable
labelled
adn
thought
restarted
greenish
169
denies
consistent
erskine
##shaw
conquered
nuc
fk
287
independence
traveling
1600
fastened
planned
somany
##beau
systematic
##*
##eft
##ක
bunker
refueling
bald
copa
259
fitch
portsmouth
potentials
##oter
##ercedes
campuses
AF
rely
##coll
forwards
enigma
##ieving
transports
ar
playable
##press
ensembles
dif
##dington
theater
##EAR
[unused734]
logos
##;
##when
divided
reactors
##jing
services
escapes
keller
##New
##ement
leaks
##age
nathan
defining
##cience
178
##rise
voc
##np
cattle
1831
##fen
fee
unex
adequately
tunis
enjoyful
dirk
discipl
##ivers
192
##tam
[unused369]
announced
diseases
troop
upd
switch
rational
robbie
fittest
opinoin
ɑ
victorian
sake
##lled
zoology
fascinated
yield
grabbing
##樹
##umbai
brook
oriental
episodes
nietzsche
lombard
belongs
##Ide
##izz
##dal
sucessful
proffess
stalls
##pered
exhib
##chers
neccesity
fur
unwanted
##»
##sius
sugges
eventual
##PL
mari
fist
repeated
aw
clicked
pine
##ALLY
ornaments
equiped
1750
snail
opener
succesful
ukraine
Cr
##aries
##⊗
##−
##mi
perch
recalling
rival
shuttle
reaserch
saliva
fragmentation
paticular
##ვ
[unused735]
discuss
##vish
bordeaux
invaders
fai
encour
থ
##lder
frances
rac
understandings
steals
Spe
minnesota
delight
kei
##minster
compartments
##ie
##17
##der
amour
##ography
cowork
britten
##tto
##laid
behaving
貝
fifteenth
##tler
ali
paws
clenched
Over
##even
reaches
followers
opprtunity
erected
##nter
marked
##aceae
your
levi
During
dotted
messy
emerge
purs
##aste
smackdown
sa
gaines
assets
nc
##git
streams
ল
ende
halle
##urance
couple
troops
botanist
##script
hating
european
will
specif
dismantled
october
sugar
##主
loyola
resigned
fules
contains
peasants
porp
##otive
aerodynamic
1642
##kir
card
uneth
scranton
closer
simulated
test
1892
avalon
norms
africa
buy
##isations
Except
sevilla
cruel
##lut
researching
potomac
mcbride
northamptonshire
trained
Using
depicted
asiatic
drilled
UNDERST
##lying
##arina
eruptions
freetime
belly
pronunciation
##ido
##ractive
##read
ト
##asure
ine
##disciplinary
phosphate
hobby
stitch
convinience
Third
jules
textile
gore
rosario
##ointment
##sack
even
linger
actively
kiev
վ
earns
oracle
spear
##world
backstroke
swimming
panicked
ionic
sides
benifit
##wal
potent
##ook
sigismund
limestone
dissapear
everytime
abo
pastures
grown
lesley
##bant
godfrey
##kney
readily
horrors
##ours
barking
mcconnell
theatrical
complement
generalist
##saka
wasps
curry
law
residence
lossing
grassy
anime
wold
viewers
wiil
butter
##vat
geograph
apre
devoid
##lift
apple
cause
sacrifices
threatening
contempor
##dilly
部
output
##bh
interviewing
banging
##nier
560
incorporation
[unused461]
##CH
R
Getting
pose
##ommod
##rine
switching
deaf
jim
415
breathed
lizzie
##rangle
fda
[unused867]
itv
##lars
obsolete
ether
pottery
ministries
##acion
##akh
##cko
scowl
australian
##ped
useful
kristen
Important
##2.
susannah
contribution
##cho
##eld
attain
oman
frigates
others
marc
prop
perez
##pro
masjid
nasser
precedent
2009
Sing
Vis
inhabit
importat
perpendicular
##jevic
mo
segment
##inter
375
gurney
[unused646]
ballots
parchment
minded
sandwich
##lasting
auditorium
BU
cycles
Knowledge
pestic
laird
rotting
##hman
উ
levy
prefe
hillsborough
creative
[unused647]
compression
collarbone
honeymoon
##س
rangers
rpg
##promising
anthony
coral
studen
cocaine
expeditions
304
##UST
495
restrain
character
meade
cooperate
proven
interdepend
daniela
##uously
##有
##after
explosions
##raya
drove
specialisation
extending
##部
Tele
##chment
start
##ย
touch
undersatnd
publicized
irres
gou
sporadic
evry
desagree
##ᵣ
##aled
ethiopia
universal
##ked
staggered
h₂o
curvature
unst
duo
concord
suburban
[unused489]
remnants
disruption
##capes
##bot
##obile
overboard
sax
##ists
jun
bony
perpet
ult
thougth
deceive
southernmost
plenty
recieving
##bba
vapor
alw
toilet
##zee
tallinn
##fahan
straining
incorporating
majorly
##war
basing
crystals
1885
firearms
transforming
incent
houghton
##students
[unused591]
Plato
##.,
deserve
cw
##帝
##issions
##croft
⇄
publishes
precise
interfered
exiles
Italian
imagined
livel
##agny
##naments
actually
1860s
##eh
relieved
##ulla
artillery
rammed
heller
maggie
italy
foreign
rifle
fiber
chestnut
gravitational
timing
libraries
##pen
##oder
ensures
##rupted
1712
inclusive
laurie
ritter
1796
mx
memorized
Church
repairs
eclipse
spotted
Morever
indochina
##ಾ
aux
##redo
mahal
operations
aloof
[unused466]
deserves
clar
optimal
partic
[unused869]
xp
mixed
stu
same
canada
##take
##atively
sadler
Best
ˈ
invitation
হ
universty
430
kobe
coli
noth
friendship
awaiting
succes
strand
blew
nominations
[unused604]
located
invisible
aberdeen
convient
##cail
blackberry
genuinely
perfe
dora
characteristic
sof
manned
##Broad
##ll
shields
paradigm
cler
##raw
akbar
1883
–
four
##nami
Of
##59
Me
hinges
##five
World
[unused574]
1800
cyclists
outputs
Museum
irritated
Paris
[unused857]
##ttes
austen
##ift
style
discr
crit
##ably
[unused883]
面
f1
##iography
gorilla
[unused807]
fork
specilize
guid
##yre
yong
since
ry
fav
##vington
##onal
BUT
outstretched
Mahatma
fights
circling
ortega
cloudy
##lete
subsistence
verification
##kward
##lined
Disney
sms
##sil
marxist
##ension
theyr
##eterm
gets
soment
creativeness
malone
##hole
gestured
calculations
slavery
xiv
र
minority
pictorial
!
auckland
chromosomes
staement
considering
hitting
texted
##ych
champions
Suzuki
lawful
hostile
outsider
MSN
giovanni
richest
stations
caledonian
17
patent
caden
suit
##fts
##De
alleged
energy
##nus
dodgers
##xi
##nbc
##mo
remembrance
biography
##hora
##unce
ciudad
##tray
dover
bakery
##tious
435
301
##,
[unused255]
introdu
imper
trier
political
tangle
##hiro
##ˣ
blanche
mounts
stranded
##zier
god
vulgar
annoy
vocalist
##chan
anew
identical
balkans
vox
trent
wilhelm
spartak
custody
##ird
printer
infirmary
congregations
somone
haas
dans
long
##tan
cours
arthritis
л
lifeless
beheaded
caesar
teamed
astronomy
京
##cell
##enting
catastrophe
environments
pun
hannah
lis
##lished
##endra
[unused223]
bays
cheltenham
[unused415]
knowldge
IDEA
drown
annexed
hong
faa
layne
defence
academie
madonna
les
profoundly
TRA
##き
hc
葉
mr
irvine
foil
stains
importants
##kota
involves
##tica
cites
magma
resolving
autom
##atever
specialised
met
linnaeus
suggestion
pra
shocked
ᅦ
prosecuted
Ev
destination
pronounced
illustrating
pleased
meanings
facilitating
engrossed
smart
overest
##anna
mildly
[unused450]
photos
cues
wooden
accustomed
functioning
forgiven
weakly
##Pa
nanny
##oshi
windsor
##ort
heath
##table
extend
corporations
##発
RISK
what
##ument
someday
andes
serenity
##sd
tuna
ʌ
condensed
visible
elites
usually
crucial
Master
guarding
closely
alarmed
infin
dominic
aggregate
##jad
je
botanical
field
larkin
stockport
atletico
cobb
noon
##lity
immensely
whatso
Trump
##acious
accumulation
##eny
##wave
toulouse
christensen
##feit
##He
envoy
canopy
create
##ller
croatian
continously
##fed
conspic
MAST
willem
sacrificed
Somehow
projections
##asm
mobilized
##manship
##ometry
##roung
disciplines
disappears
scarlet
##olism
successors
titular
airbus
conservation
##ter
##home
anand
izzy
oils
differnet
clients
silk
demonstration
alien
really
phelps
cruiser
[unused934]
proye
pavement
##pod
##ires
morning
##uty
countdown
##ino
poorly
##oll
dummy
##rco
translates
Unlike
bingo
##utus
reunite
##okk
immigrant
##lu
logged
plaster
##zumi
chaired
subsequent
craig
[unused328]
##riends
collectively
##arson
coven
cfa
##asp
##ttal
scale
recommendation
crime
eastman
gmina
latvia
font
expresses
##kushima
biographical
bats
##林
spare
spirituality
attracts
dolphins
yugoslavia
1500
Ant
mommy
arranged
import
sleeps
labor
upward
prosecutor
gabrielle
coiled
##cence
##こ
ammunition
endorsement
behaved
band
commemoration
patron
norway
potassium
vaults
eduction
suits
senses
slapping
yp
visually
##harat
##ami
sarah
disciplinary
ahmed
##ᵃ
blocked
kn
[unused972]
essendon
depend
sou
northumberland
##gpur
jeremy
გ
boroughs
radicals
civil
straightened
##edia
webs
frequently
aviator
collaboration
themselfes
rule
cumberland
floyd
shootout
mane
##foil
fantasia
##cy
##zuki
malik
##ﬂ
##llywood
richness
##mbit
enemy
##entially
cream
icc
ambient
privy
##བ
##makers
##lash
appe
##linson
masked
##odies
Acc
silesian
commn
abund
norris
##acio
chapels
appointed
##ENTS
bail
dockyard
語
suicide
referenced
##eps
[unused823]
farm
tristan
rhode
insults
گ
handler
paddy
drowning
childeren
network
##icts
##img
vechiles
stephens
contraction
haryana
spat
nm
uncomfortable
institut
limerick
##anial
dissolution
##oris
peers
brewer
##tension
disco
emptiness
qu
clothed
alert
latvian
##zd
coveted
asks
##eration
categorized
palestinians
venetian
##ital
abot
obligation
outward
##zily
scient
##pura
eyebrow
##ough
globalization
brother
##Ch
SHOULD
##lun
indians
##sam
##urants
verb
selecting
lena
marred
[unused432]
Good
ras
emotionally
[unused527]
wiring
dish
cooled
ver
excavation
##estions
accident
distracted
congest
[unused929]
flickered
exsample
hang
sympt
sailing
favor
Ro
prob
east
cahn
##ɹ
[unused825]
13th
e
##rgen
boost
sinister
native
giude
stalled
exemples
greenhouse
น
massachusetts
immaculate
davey
##ider
##viere
##NA
cover
stat
gaddafi
harmed
950
riding
trapping
agee
##rized
gasped
summon
outlet
[unused191]
??
2015
iso
##Advertisements
catalog
##But
scratched
johann
speculated
##ball
outpost
departmental
quikly
hiking
colombo
##pre
[unused74]
stressing
rules
premiership
shah
##‡
##dorant
remainder
processors
stopped
shuffling
remove
##gers
determining
tabitha
##from
37
landowners
Few
tal
1662
white
plum
computational
emerging
1962
thoughtfully
advisers
easy
effe
tavi
josephine
guidelines
undertake
postponed
usb
tung
blown
pertaining
##」
fires
Kal
interacting
petrolum
accord
vanuatu
##ittion
broader
ON
actions
##iesel
##Is
bell
Co
enhance
##cellular
glam
め
ª
##古
PERS
##ধ
reminding
infered
士
mbe
gma
gave
designated
moines
didn
descending
motorcycles
##ɾ
swollen
asse
silva
karim
differents
##宇
tolerated
Experience
quote
##oft
nowadys
##hara
mai
##yam
##bah
##pecially
borrowing
##zow
sworn
##reshing
negro
deprived
##tes
##joying
brass
##bana
drains
##ease
confesses
medec
##riding
barbarians
##lop
integrity
marri
originals
modifying
##cailly
infrom
planets
##typical
neglected
##ystem
##ATIONS
preparation
ledger
concert
garment
##京
davis
##bra
1813
ipa
avo
##．
##pic
##boats
cradled
britney
wig
##op
##chang
Manufact
brodie
phoenix
retention
chihuahua
sheds
sumatra
revolutionaries
sav
jud
figured
##OW
specialty
oregon
raoul
USA
[unused42]
cleric
economist
bulls
##opp
##sut
ness
murderers
telev
Or
traders
##nstein
philology
daphne
genere
##own
indicates
erasmus
static
honey
pyramid
shaken
##esth
ticking
strewn
##icks
1630
##ilt
detailing
esp
##ankind
pounded
story
gazed
volga
##asian
runways
canned
inhib
[unused862]
insects
gao
secound
##ging
##grade
[unused370]
front
poking
nix
raged
cliffs
rumble
fairness
##oles
4.
mlb
friction
finite
##ox
nur
jolly
irre
vent
##provement
unrel
##K
slid
specializations
##lves
ნ
malay
##rmi
realization
Australia
Imagine
prussian
petrole
taught
educ
Producers
##ride
arrests
vista
[unused851]
legitimate
tremor
exhibition
Hard
paperwork
returned
eponymous
youngsters
royale
##ე
##jure
weimar
port
##ching
resisting
##dict
scandals
##ROU
dissappointed
unus
Automobile
thirds
##rlin
boutique
choking
less
albums
maori
spies
urgently
indifferent
##icket
##houses
##rnik
mortar
pads
##air
##why
temple
cid
carey
cans
meyer
grease
convin
Ber
collided
teaches
losers
revised
assemblies
mallory
##go
langa
colonists
##ratic
##г
bubba
snuggled
read
brutal
Community
##ocent
defeating
[unused322]
lax
[unused226]
1661
##ನ
ornamental
isbn
arresting
polic
##sov
##una
actress
knotted
##tiv
##successful
##ffered
tempted
estimated
beyond
adjustable
##hy
distress
crashing
hor
##tsu
##rter
etc
1722
Jobs
packaging
##ieve
suffered
took
soyuz
competent
piedmont
Martin
susceptible
##drop
##rga
huge
activity
crashes
mind
侍
##itute
Hence
##mia
beaux
##lena
T
palais
mohammad
please
completing
##roud
imprisoned
absor
##ioxide
##lova
recive
PR
samples
acknowledgement
material
depended
##iche
##ilo
verona
subfamily
exercise
challange
[unused898]
smarter
##plish
Op
giacomo
##owered
yusuf
Administration
1690
##安
play
##clock
stricken
blooms
symb
outlines
##',
technics
##ART
₍
well
##riers
inve
##what
edu
##time
telugu
##ustomers
Sec
britain
inflicted
afghanistan
esther
assessing
exam
regiment
iowa
armagh
deciding
Par
##ocal
meas
##rowing
scattering
pie
##rval
1887
311
miner
##3d
landscaping
lens
migth
expose
##bson
##iches
219
##re
freeway
redding
membership
fumes
Canada
primal
##nity
1974
commemorated
vans
boulevard
##vier
weeds
arent
screenwriter
##bahn
exap
primera
realize
[unused552]
##urious
##nem
jelly
##shu
resturant
therapeutic
##in
aide
pained
kensington
assimil
##sy
remember
separation
progres
ashok
underground
##llary
industrialist
diaries
tor
clench
cocept
##food
bicy
alignment
##washed
elephants
trailers
acadimic
Secound
我
effecient
pacific
unconfortable
##iping
##地
recommend
ussr
##metry
taunton
stanley
⁄
modified
Alth
doorstep
vanguard
##erton
##ains
HIS
grab
inforam
mickey
pagoda
##iated
[unused419]
##EL
fluttered
cedric
##pants
goup
ivanov
##dra
fundamentally
guest
##hu
Mar
roasted
claremont
defenses
tilt
##wu
[unused486]
Enjoyment
sharply
pierced
sweaty
novi
Must
couldn
real
[unused68]
host
##ω
WHY
jase
Switzerland
##gp
unnamed
beloved
delegation
barrington
##Knowing
feeder
widesp
sounds
hydrogen
Though
法
lorenzo
uniformed
intensely
cultures
anybody
ferrari
jai
marseille
##igned
providing
travelling
c1
retribution
1931
miocene
dissent
severe
##ilege
##onne
creed
variety
##bar
brunswick
##ʰ
##小
intriguing
tribal
[unused222]
##incl
##rring
##his
##orf
##unately
modernist
##BS
##family
surged
catalan
lad
loosing
930
naval
athletes
##ivel
lublin
alistair
##abel
distillery
Motors
##ST
adventist
calderon
originally
ƒ
橋
spoke
850
sera
tad
triggering
frequencies
learned
opening
subject
ж
arena
infections
##ض
Nowadays
populations
##isl
weaver
い
##66
[unused221]
gunther
##day
earnings
starving
bosnian
##к
permits
mony
dest
gui
##oue
act
##cara
hanson
angelina
honoured
galilee
[unused526]
strains
##tops
herzegovina
treated
haji
rubber
##eke
##ར
Specially
african
venus
rossi
edwin
cade
176
##о
yue
derrick
puddle
oversight
##ffic
##far
hi
europa
teached
unversity
##ahl
ground
railroads
podium
[unused717]
Increase
narrator
##cial
##ut
tackles
stone
stead
dear
systematically
chat
triangular
alma
gotham
Forexample
corresponded
inhuman
Had
earlier
cantor
theacher
3-
##schen
##kovsky
lynx
##iti
low
##21
Environment
и
palces
prevented
etudes
[MASK]enactment
boyle
bacterial
##zquez
##anson
darryl
representatives
themed
##gil
adam
##AL
rochester
hagen
##Thats
adapted
impatient
processes
materialistic
practical
primate
basilica
mendez
HAS
california
notice
##X
either
##holes
tram
animation
pitt
##hmi
needing
##oese
knight
gregor
sequence
stalk
limb
##ainable
plural
aggressive
screenings
##etions
Wal
claims
befor
dudley
controversial
petroil
harder
he
filters
preffer
##ille
shin
##lidae
amont
##ј
developers
maverick
pins
walsh
smog
##aceutical
espionage
squares
##eye
eds
allegations
contry
mentiond
metter
urge
##lism
lipstick
gratitude
##75
communties
activites
spectroscopy
##dick
NOW
Afterall
##tropical
twinned
##quently
perth
smiley
Turkish
公
##alin
restore
hillary
engene
brahms
rebels
##sery
byu
corrupted
unb
rica
somme
out
##gi
hellenic
Hum
pan
##ren
concepcion
German
20-
Adam
instituted
debates
proplem
##fo
##oum
respected
di
integral
vacation
##ivities
[unused284]
Cal
qualify
declined
thieves
##hl
VER
qi
organizational
reclaimed
##正
lineup
US
greaves
explodes
plaid
exercised
museum
##nen
automotive
offended
delayed
gaston
ウ
##isment
consummers
babu
##tained
##ucks
entertain
##nds
Mathematics
bulge
##venting
conjunction
##inga
minimize
yon
sylvia
padua
hollow
wetlands
unl
vs
anal
Educational
appearing
pops
das
##漢
confid
Lack
dreaming
mood
GU
hartford
##plate
evacuate
[unused520]
assumed
efficient
whereupon
accessibility
deployed
inac
##mel
1650
##sa
sandra
sept
##ʲ
swirling
##会
speeches
duncan
Many
atractive
cleansing
##rika
temporal
vineyard
##wn
##dae
ubiquitous
##kin
dammit
勝
hermit
C
##up
organism
concession
additionally
turbo
##弘
claire
acts
myths
conveyance
satisfies
##bbly
ADVERTISEMENTS
precursor
tina
sod
##iferous
##wang
penetrating
##µ
wilmington
thrill
##}
154
insulin
Th
##chia
##llie
maintenance
invention
empowered
suffer
worries
##orestation
##ד
Tata
appalled
energic
##Each
onset
literature
expans
andhra
joyce
##mata
century
sleeves
goodness
AL
##cion
crooked
beech
##arted
Italy
氵
##tism
Econom
##ety
coun
##ই
faculty
##ceed
##uddenly
wi
pleasantly
##ム
soho
companion
hank
barber
compar
metabolism
donated
##zar
apex
##it
sympathetic
cir
hussain
gat
[unused135]
2018
[unused812]
rad
trends
busier
##pite
[unused2]
stacks
actuall
exceed
autopsy
Its
##ination
##sses
prisoners
combustion
biggest
induce
evey
jewel
##lynn
##│
Rel
fusion
##utations
tack
psychological
petra
yesterday
rosemary
nobody
insisted
turner
Plan
used
substrate
meek
1779
vinnie
decks
え
##iently
remedy
##AYS
clouds
##ece
ozone
excellence
##way
sinatra
70th
diss
seminar
everett
optic
suport
opens
foreword
acidic
テ
humidity
urdu
ecosystem
adrenalin
boulder
mercy
246
kits
talmud
##ava
byrd
brushes
##about
xiao
##ments
uruguay
follwing
receivers
cheer
compan
coherent
skaters
##tad
chronological
earliest
racer
##ي
[unused18]
davidson
##Time
epstein
helplessly
visualize
wether
developes
photosynthesis
donegal
psalms
tower
##gins
##aina
pollutions
youg
vey
furn
##asurable
slacks
assisted
##rings
##rred
perf
sentence
dion
##ior
attentions
benny
miniseries
underlying
charact
ironically
207
##dek
47th
servant
scan
repealed
##dded
##ides
humanist
winkler
##ED
##Car
difin
shelby
recognize
livery
unde
き
mainten
defended
cardiologist
apologized
shortcomings
Last
john
theres
##ping
default
veterans
##worthy
priesthood
han
##ogether
township
stanford
##oses
Maybe
confronted
fused
salty
##rong
cocoa
ups
1807
##style
##onim
marion
casinos
##government
albrecht
defects
prodigy
##nc
##∩
wou
##oose
propert
[unused289]
appearance
##uations
aimee
remote
##velling
prized
##hm
comets
executing
paw
##ו
suv
##aple
impression
joining
broadcasts
deterg
planes
tham
rms
adds
drafts
cared
##dong
##ierd
##iocre
everyone
##core
fours
##film
drag
##rich
horne
##lean
resemble
prevention
##tton
refriger
approx
##conne
heartland
##tosis
objections
ı
Intern
boxing
lengths
ᴵ
worn
##ent
##irst
##-2
চ
##folia
inaccessible
below
wastes
outrageous
discovers
disagreeing
tugged
resonable
carson
Gener
3a
288
troopers
alternately
terminates
ɨ
Generally
finer
resin
maitland
##oton
init
##ualy
consolidation
possibilty
priv
viking
medalist
##demic
connot
cor
[unused959]
一
##bourne
automobile
formation
sign
durga
kilda
1711
economies
##wear
becasue
140
jazz
campeonato
##So
##drive
Commer
##ffe
[unused360]
hanna
pumping
[unused753]
alexandria
carp
cab
challege
smoothing
vishnu
##44
characteristics
taxonomy
undefeated
inflammation
##throp
vc
##rchy
leg
##rdo
presently
philharmonic
103
rows
ideally
##lta
disciple
##uez
Britain
satin
validation
##arians
##lita
##oic
sufficiently
calls
betterment
modelled
Se
つ
tags
montenegrin
observing
##yler
knighted
tires
successively
##There
Everyone
rece
stongly
##isers
green
[unused783]
wnba
##chrome
[unused292]
##chal
astronomical
‡
##inent
conceived
relaunched
ezekiel
takes
authoritarian
comb
[unused319]
option
Kids
Gates
1680
upbr
grant
MAKE
##cki
##ais
lifespan
justified
clothes
cats
bangladesh
Modern
##truct
tides
sc
procedure
infancy
spending
##anto
affordable
fitting
Big
Honest
davenport
occurrence
bosses
##uch
##court
arises
architects
acres
died
cassandra
chrysler
raphael
##uding
##gation
[unused327]
univers
##Second
##tones
##racts
malvern
paradise
##ס
550
stainless
##loaded
flav
departments
necessities
renamed
trains
pathways
chatting
hale
seal
sacrament
throat
##dou
##ock
[unused517]
wholesale
Mat
engineered
fernandez
manager
celine
##And
requirements
Government
guns
##po
gaming
brigadier
mccormick
ni
bea
westwood
charges
rectangular
aba
##irs
Istanbul
##ロ
ress
##consuming
Iraq
165
##sas
download
nominally
ramsay
for
armando
paired
belie
##ths
##ctions
decca
chiba
immediatly
bursting
suburbs
##nae
slightly
##inity
cum
inflated
##professional
cong
sighs
merton
kneeling
##野
CAN
gujarat
phen
bermuda
sykes
illustrious
sense
tko
##ifier
northernmost
##.".
##ος
asp
disappearing
satan
##vate
[unused692]
miners
novella
##igen
##skin
##ose
rhymes
ballast
fender
nickel
nah
58
##c
38th
invented
##ding
supermarkets
doen
##bled
unusual
##icz
threatened
;
900
sooner
gaz
##vna
epit
[unused793]
insanity
jewellery
bolsheviks
hands
barn
##Ad
montenegro
Base
[unused420]
jumped
pulses
##sters
rubbish
comic
⟨
kilometres
verlag
browning
melville
stares
ari
barre
drawback
join
imporat
togather
##ung
Now
dynamics
gov
tweed
[unused707]
embankment
acit
dares
haitian
adoles
inducing
whose
ᄑ
ascent
oil
1768
##irations
crossroads
brewster
impulse
bayou
disney
ellis
lgbt
exaggerate
seeing
##ய
creat
[unused176]
envi
dreamt
##fields
subdivisions
##conf
##term
##kim
neptune
441
##ITH
sport
##ighter
accumulate
aired
jiangsu
AD
##iff
markings
monument
communicated
##cra
dumping
portico
##sper
clearly
gabled
gesture
sack
wichita
##ixt
Event
stirling
wembley
unit
[unused585]
winters
dislikes
requested
catholics
世
opaque
choosen
couples
beneath
##watching
serials
mud
fraud
##ivate
##olgy
elevation
another
##島
useless
##た
heroes
swimmers
charms
##ceive
harming
##isness
##mans
medina
lex
##mn
switzerland
awared
松
cancellation
grasses
artery
##fits
forearm
undertaking
000
і
claim
hedges
aroud
chemist
nomal
[unused524]
alex
lucan
##ledge
##ences
##ito
prelate
##vani
attorney
airplane
##།
proprietary
tierney
##ows
escape
knox
controlling
refuge
[unused157]
##isha
##UN
[unused714]
mountainous
##ossible
##侍
chilling
place
##eting
passion
Rich
##bec
horizontally
##zed
pref
##Im
₁
thougt
##eds
lahore
articulated
necessary
educate
##aya
##ye
tessa
respondents
trophy
mori
##ła
##Since
application
saturday
talk
joints
focus
plateau
carefull
receptor
radioactive
##raphy
guilt
purposes
gallon
##akes
##umatic
##erer
hayden
fallow
##under
240
uttar
##anes
iam
cosumers
term
vivid
##acial
deposited
richards
distinctly
unsuccessful
govt
##新
trusting
molecule
race
ally
happily
centers
knowledgeable
##უ
##morphic
##lige
jaime
origin
frederick
mama
embroidered
selfishness
toronto
代
##uman
##מ
popl
##things
##acing
broadcasters
metrop
destro
blazers
##tails
kazakhstan
uncredited
nesses
worthless
##aceous
viva
wrestling
construction
pronouns
paintings
But
speakers
fierce
##success
five
Napole
livingstone
deployment
legs
SUBJECT
##arb
blinds
tajikistan
##AY
##nery
##wc
##norm
skyrock
previously
Christmas
lyle
warehouse
data
madagascar
podcast
twenties
mention
medley
costomer
##inist
##par
ami
skipper
thankfully
souza
auxiliary
630
##ћ
##room
mute
able
sato
allowing
differentiation
graphic
SE
8
##bohyd
percent
blasting
##一
vigour
utrecht
resume
inferred
frome
gambia
leicester
##rk
[unused805]
Toyota
elisabeth
mills
##rop
##cessary
辶
dr
ellen
hunched
spirited
brood
fascism
stare
##gettable
sai
technologies
arrays
sikhs
postdoctoral
primarily
stryker
##eversa
own
dig
##pile
bottoms
[unused610]
##ia
intellect
zoom
##broken
emergency
vap
1971
unsatisf
##aka
xvi
##amine
viz
cello
Serv
tia
tc
TRY
##os
gather
##ɔ
relief
relative
##inet
arriving
strap
martial
[unused205]
brentford
skyscraper
priscilla
drastic
sence
carre
mush
[unused516]
suspicion
bookstore
tess
1994
##NET
[unused589]
advertisement
milestone
ф
scrapped
104
leaves
McDonald
##同
casey
##lese
itinerary
glued
##Think
reason
##abi
stripes
erase
alpine
vitam
overhaul
surrender
1777
attempted
criteria
flopped
##aties
##iates
unix
slash
##orous
singleton
##hearted
alternative
ranking
coloration
##37
1998
travellers
##thinking
staffed
slope
chained
##efficient
lucy
Enter
##フ
[unused20]
[unused625]
contrad
If
classm
##sible
ALSO
##nco
prasad
##∂
andover
liturgy
commonly
culinary
thrusts
acknowled
##ٹ
everthing
##史
alb
vine
sustaining
##culiar
popularly
theorems
##saurus
##gen
Thes
1876
authorised
JUST
note
immortality
##ags
candle
67
trenton
pitchfork
505
faso
piss
##enna
alvaro
##leged
edged
germany
whole
aspirations
##inities
pinched
polly
jurassic
stiff
meyrick
embryo
flies
variously
predom
##vic
concentration
facilitates
OR
burroughs
ᆫ
##raid
nepal
caller
shopping
guards
##kan
dew
hbo
engine
booths
airfields
1784
211
inducted
tas
dislike
Mr
expressions
unsuitable
broden
tearing
##someone
entourage
[unused670]
leland
boaring
##acle
manages
##au
##cate
L
##iron
refurbishment
facil
lombardy
rustic
castile
final
linden
##thless
[unused144]
february
##pins
elections
fans
conclusion
##ni
specilization
##rella
guitarists
sandw
[unused744]
##castle
generalized
1624
282
##yson
neville
monitors
demonstrates
[unused63]
##edy
##nl
conventional
##dara
$
absolute
comeback
flotilla
[unused145]
protected
swallow
##ゆ
invent
##chaft
Twenty
ao
marko
users
flights
connections
##alla
vents
fuscous
cautious
deterioration
##ened
misunderst
counsel
##wes
##thor
##yeh
Att
32
enforce
presentation
##yn
##ploy
termed
wow
1732
##idad
##agn
##kley
wes
ョ
football
##tify
fertile
elevated
reveal
paxton
roxy
##onom
greatest
overc
wildlife
telenovela
た
##ocating
##nagar
##hoff
begins
corporal
[unused620]
adapting
maths
div
##onia
vacated
publications
average
theologian
marital
bertha
wages
##49
communal
abandon
invest
##ibil
##act
trader
ST
becca
communtiy
ames
##aling
##itia
##udents
forthcoming
flooding
cast
##cuts
##29
##endez
obstac
evolving
978
cornell
06
coord
320
mixer
##cesary
headlined
mead
burst
manually
jenkins
lancaster
##group
ს
rather
##ucci
corpse
nissan
beleived
handled
պ
clutched
[unused77]
sometimes
##ob
labour
jamestown
carb
sip
sided
##vere
draft
##の
rebelled
walks
flirting
##iface
deserted
waves
possessions
Cont
##ʑ
workshop
##shire
##rization
[unused11]
comical
hike
sev
##uber
duchy
##page
##drick
definit
photographic
postgraduate
ى
cottages
##pa
raids
##som
persuing
subs
apply
Milan
wakes
##clave
##外
undest
undertaker
tehy
tropical
##ONG
##col
##flict
##ara
going
reinstated
drummond
victor
##լ
driveway
Each
lori
confiscated
slabs
super
tons
range
Res
sang
kerala
cram
transporting
Developing
countries
charters
knives
colours
plus
geology
recital
awak
##oser
##ι
flashing
beak
外
que
1580
empire
charted
comunities
pion
soils
security
[unused948]
brooding
than
##quire
cyrus
specified
sketches
##র
fide
definite
accept
encounter
##ly
mad
shoved
##elve
##bib
lethal
明
futuristic
##udent
hoax
yuong
##tis
##sboro
certainty
##distance
radiant
np
vigor
sacrific
amtrak
##wick
displacement
##etion
bowler
286
##kts
carlos
nj
##nsky
gloria
historians
##kulam
##oon
sincerely
##osition
clare
##vita
[unused182]
##28
[unused257]
[unused757]
inspection
9
an
grunt
assignment
celeste
wedge
darts
spect
besides
opposition
stew
longed
morrison
ideology
elton
##ree
paralyzed
hereditary
richmond
halt
forgetting
ismail
supr
surveyor
couse
##engers
electr
##ands
mueller
##hampton
mhz
willingness
development
hospital
dali
scientifical
explain
##sable
eventually
photographed
member
1993
dimension
expen
viewed
drank
##rina
weakened
communt
notwithstanding
olive
Afric
##cid
enhances
##AV
transforms
migh
##design
keeper
##nish
##巿
bore
fibers
describ
stand
sud
burkina
idf
horsepower
##⊂
horrible
loyalist
keyboards
##lly
scenic
ₕ
##rata
tur
wehrmacht
dil
##cating
dinamo
##ogen
bang
pursuing
famouse
difficulties
credibility
cabins
herbert
##unes
historical
twisted
morphology
##`.
cent
scowled
##cerned
bologna
у
##ミ
willed
bush
aubrey
qatar
toilets
divers
dl
manpower
nationally
opportunites
urban
lay
dific
##eted
##ques
presentations
younger
thyroid
ought
warned
wen
assaults
##介
concl
colby
legislature
clergy
liver
##onard
spectator
doubt
yale
polluting
##run
capacity
bust
mozambique
##ufficient
Num
weaker
##itively
##mon
Quite
employs
pest
1752
realise
vitro
hormones
whorls
deposition
moon
comfort
##tour
newscast
install
##cede
i
##akespeare
hawkins
##bund
hairs
##ser
victories
Bo
##uted
secretaries
tracing
⺼
goodbye
backlash
zoe
revision
alumni
fitz
thence
540
kicking
anytime
aka
konwledge
dispar
enterprise
parentheses
estonia
##otto
follower
enabled
ت
clones
miniatures
##amsung
##ios
adjustments
scooter
delic
##scopic
##zione
remem
##ₘ
1903
chance
panels
knights
##Person
bec
analysts
##otted
Ste
live
م
ワ
coaches
moss
rhys
##xley
kepler
sighted
letters
##bara
madame
##SS
enlight
barely
towns
officer
outrage
##owing
migration
##board
inquisition
Maj
##→
peterborough
grinned
##ʼ
##rase
syria
##將
humen
kern
octagonal
##jas
backward
[unused700]
division
malaga
strife
distributor
hatfield
late
nellie
gerald
knees
##trum
modification
wickets
##Somet
mating
points
ו
##urgent
bam
danny
deals
##specialization
介
##sonic
minimal
[unused429]
chandler
investigates
beaten
archie
##urally
ᅮ
ratified
karin
awarness
fencing
terre
duc
pays
chong
arching
##ellant
1/
boo
##ே
summarize
boasts
ン
jesuits
resorces
enthusiasm
regulation
tears
##poulos
mes
await
obviously
##ight
tiles
blinded
tricked
eng
##pressed
1699
sheets
matrices
##brook
##pit
newfoundland
hedge
##五
oppertunities
financial
##出
conferences
marshal
##sden
##kat
##nsis
captain
gone
debt
49th
appart
marriott
##⟨
##ngen
##log
ो
ɕ
##opus
##chuk
##conventional
##mic
two
lyric
aqueduct
pantheon
periods
inscribed
##aving
##vao
electrode
##pons
ᅥ
responsibilty
##rrard
background
[unused383]
##N
carriages
tomat
agnes
reproducing
stre
books
beautifully
spy
adjunct
compiled
prodcut
juventus
specializes
athlet
ต
300
acre
chair
practise
interaction
wwii
jam
Computer
##sham
##tub
ammount
peg
interactions
demographic
##bag
offences
casino
09
vicki
止
straightening
goldsmith
climbed
nurse
##uries
roadside
1611
mentions
##pecial
macedonia
##iq
£1
screens
ས
notion
independ
##";
##cium
surprise
##cco
mick
##rative
troublesome
ja
nicole
grav
featuring
##users
colorful
willl
whistling
trams
[unused799]
inculcated
##～
prostitution
aye
##tlement
ufo
scre
calories
maple
dioceses
##糹
basil
20
hostility
preser
1836
sublime
manuf
clone
##sur
##ant
guilty
performs
grimsby
car
consider
##point
ভ
computers
shouldered
Firt
intervene
भ
##udying
grain
bishopric
##bius
segments
accordion
fairfax
introduce
##ado
stylistic
##uk
ruled
rican
faulkner
maclean
ste
commercials
catholic
chaplain
indul
##aming
thins
60
##ged
rearview
##ན
blackpool
cultivate
neil
hicks
packing
##lius
##afford
Altern
creats
prison
##itor
specefic
speculative
##eborg
hip
##sies
abou
eliminating
noone
reservoir
rude
blurted
naked
cheering
forcibly
gears
hears
envisioned
[unused860]
##yama
##arion
catalogue
##irus
stab
opprt
jose
[unused983]
copying
mba
neural
ج
site
coding
##issing
accordance
dimensional
joachim
volunteering
##forced
dissolve
hugo
100
clocks
sloane
##omb
stuffs
mt
1754
healthcare
faction
##night
chiefly
configured
theaters
alsace
##var
##avio
##ntown
〈
cones
oversees
##chfield
french
##layer
libya
##naud
marlene
proved
doyle
[unused501]
emphasizes
scrutiny
家
gabby
chicago
##ives
indispensable
somewhere
kim
trip
continental
holiday
##lices
advertisors
##uating
grandmaster
µ
1848
gershwin
novak
alre
climate
Revolution
grumbled
jefferson
jeopardy
patna
Nations
probation
wexford
exasperated
kills
ʑ
##hart
##qui
##work
uhf
competiton
recognition
leonardo
entry
##aves
reflection
demonstrating
charitable
metaphor
squat
##ح
##hir
##ject
champaign
chili
tipped
##陳
adequate
##emia
nintendo
novice
assisting
##imum
##esses
coordinate
##org
characters
##bio
happenning
omit
##inted
jin
tacoma
footballers
faded
snatched
relocate
##nable
[unused848]
careful
everton
templar
##PORT
[unused820]
filing
##ellig
consepts
flooded
notable
beverly
corpses
behavi
bourbon
activists
concourse
[unused487]
##ection
hunter
cas
enormously
insertion
[unused467]
marx
techonology
horiz
hahn
1970s
disrupt
territ
##aged
andres
guineas
wallace
##itaire
rhino
roof
##SE
flaps
bele
##ₖ
cheese
routines
flaming
[unused663]
twigs
[unused406]
flicked
irs
gladstone
##eog
Department
wren
batsman
iberian
maguire
comunity
##tar
poisoning
##monium
成
##UAL
daylight
prag
believing
##sub
pablo
eliminate
achieved
jersey
et
##uls
potential
##''
darkly
Teen
utmost
westbound
proxy
##perate
hacked
‰
northern
treasure
264
[unused179]
##acter
##kson
devotion
functional
soy
artif
##cents
resources
intrinsic
1656
inv
strapped
consoles
endured
118
bourne
borough
overwhelmingly
denis
##yte
crises
##פ
##inon
元
##竹
january
unreleased
##ASA
1938
finnish
costume
publication
confessions
staircase
##ont
repository
Florida
tributary
vikram
amazed
##shima
simulcast
bn
##ire
crab
seventies
steered
##idden
ashore
##osta
mixt
exampe
cummings
ellison
quicker
ol
linking
melody
contributors
Success
Add
parcel
sewing
sensing
##ois
kid
accolades
lambda
WOR
##iba
shea
planing
recipients
Finaly
##gment
nets
added
simpl
baby
swell
informative
##kovich
icy
##e
##ael
clarissa
DID
flashlight
vech
##tum
challenging
carlo
caracteristics
cadet
magistrate
conditioned
devil
hello
春
##minist
Fam
##kos
leone
madden
Techn
dub
##ffin
162
aspiring
##wl
unreliable
eagle
splinter
hugged
acc
anymore
feels
##omics
Accordingly
labels
ミ
lashed
##qa
parag
genetic
flour
sicily
##ji
manifestation
allegro
prussia
##Tra
caught
toward
##₹
newborn
bait
warming
##/
gregorian
##drogen
collateral
george
sheldon
1908
insignia
rotten
1997
unpleasant
##rophe
unknown
christine
humanitarian
regimental
subtle
ᵐ
##rer
record
steamboat
devoted
ecosystems
ف
prairie
##vyn
hampshire
apprenticeship
##hly
workers
common
crates
forte
flux
rei
ゆ
rash
voy
##spread
condemnation
##∘
satisf
federer
techin
colombia
curriculum
asher
थ
##z
siblings
reliable
meanwhile
UN
##ncy
morley
emotion
spanned
##eed
foxes
influences
extant
##iating
caucasian
gi
##deh
elev
drawings
1920s
fatty
botany
transmitters
benedictine
##pollution
excursion
horses
##jm
slowly
nerves
##ikes
togheter
single
batavia
jammed
##57
eduard
maximal
##پ
youngs
soul
conservative
sober
Knowing
drowned
picking
##ae
comparatively
##tated
##optera
##",
emile
agreements
##↓
abraham
advertiments
##genic
##ː
lobe
##elo
bared
scribe
90%
rowland
chin
##elt
condemning
judicial
revolution
proto
gypsy
##your
victims
loud
measures
##ingdon
[unused311]
caressing
firms
convinient
ecological
##mable
woods
nik
stokes
knitting
##на
stucco
prepar
##otle
Ign
spring
exclaimed
maximilian
##龸
coc
tere
sorrow
##inated
[unused134]
valet
contested
playboy
198
[unused856]
Since
skinner
rags
##ogan
##wg
¨
##Such
landfall
locally
1840s
lal
justin
sargent
ե
seasonal
bleak
##naire
rotate
olympiad
bride
countess
ankara
larson
Gen
##cult
looking
valentin
##sequently
HARD
averaged
##Success
##ffect
gail
mabel
lizard
ᄉ
vigorous
Nature
revelations
##200
##overed
arthur
capsule
rene
semesters
vale
1
1868
enrique
neighbors
scanned
ile
##ywood
dorset
performances
eps
poluted
curses
##•
bradshaw
##aneous
##!".
millionaire
giving
##ahu
forge
tiger
liquid
newcomer
vance
chid
interess
heartbreak
repetition
flutes
assumption
villas
gene
tay
garlic
shower
rancho
##xy
comput
twitched
mana
robust
slain
intern
assent
##do
rappresented
mortal
##shore
delhi
loses
##erv
various
physic
savoy
plunged
##sons
##fore
destroyer
playful
paid
netball
amanda
##zzo
##ooks
educating
MANY
##inction
hp
archibald
facades
finley
##egan
##ances
profession
intercollegiate
##adge
##lose
kingston
loosen
accounting
roderick
grop
robbed
##urrent
х
##claim
strengthened
##zin
lennox
skeptical
firts
##ary
##vas
wta
##rest
cake
barley
interes
improvement
aiden
stands
##ク
##lster
stomped
delilah
specialise
regina
##though
guadalupe
[unused343]
coughing
cit
vulture
makers
describes
mw
##uda
kenny
1925
##agne
creeping
##aa
##bing
Che
classified
transfer
dangerously
csi
##country
caused
##enary
##আ
respon
##oom
wide
mentioned
arouse
Going
##lei
accomplish
exported
##gol
advocates
residues
tel
mission
chad
##omple
oppotunities
Coming
学
regain
businessmen
yielding
enjoyments
[unused664]
lds
rave
falls
##ɐ
UNDERSTAND
Cars
hive
pressed
##kee
preschool
16
heinrich
weighs
disk
factories
##uties
armchair
archaeologists
contemplated
##fish
##ccus
pornography
internacional
1609
afterwards
abdullah
tomatoes
主
reeve
##bert
omega
tight
injury
freaked
imam
##¦
consolation
guyana
masses
##othe
boom
nonlinear
##].
picasso
uh
##ored
##sie
##fication
swat
aaron
##ify
##ן
##att
ramsey
mathias
kenton
electrically
##ᆷ
##licop
##calc
heavier
[unused761]
duration
utc
School
acom
##stit
336
delegate
categ
emory
harm
uniformly
kathy
trav
##⁶
inspecting
##rites
COM
1735
withdrawn
hint
marshes
glendale
installation
[unused597]
chapters
under
beause
grows
internet
##hale
belonging
##ᵖ
choked
supported
criticism
charcoal
safari
pork
strive
##that
[unused917]
paperback
hurricanes
enormous
communitis
businness
tuberculosis
##evic
doi
patsy
chow
brands
##mother
##ulus
[unused113]
14
function
##₱
poultry
[unused53]
є
specifical
godfather
challen
whichever
Ob
fixed
vitality
[unused573]
ᵒ
##vb
june
tank
tune
evicted
celaena
##ruck
schedu
土
regrets
magician
yellow
з
There
##ª
assurance
##nt
genie
Shanghai
##†
##upt
worry
##ب
gibbs
nightclub
sonar
vig
infrast
shivers
institute
##inery
guru
palatinate
marvelous
environmentally
opponent
##dial
[unused623]
colloquially
preferred
accessible
llc
stewart
marquis
##rien
pulitzer
restricts
##baldi
Bl
toyota
offender
breakout
heaven
lobbies
dortmund
mammalian
madeleine
mer
umm
foam
grooves
##aining
substant
dormant
##itung
##sei
##ings
##crow
onlz
subj
##tura
##person
fabrics
boss
cohen
scratches
apartment
quincy
favorably
alloc
Also
spying
royal
conven
##sic
smoky
distinct
emperor
##¼
cried
##ICAL
superior
ligand
abouth
transparent
arguments
Wars
mahmud
saudi
##Al
sunny
tequila
##ressive
broke
liga
##erie
finishing
campo
wild
##EM
##gm
##ECTS
##ilst
avoided
kaufman
claws
restaurants
vegetable
careless
[unused854]
overture
villa
oter
##quest
##jump
##ech
##common
sous
##ashing
spartans
plagued
auguste
##ott
##eng
ragged
deposit
oth
##iful
rainfall
veteran
##ap
##shed
pea
##orro
რ
whereas
kicker
synthesis
##ruct
glo
ebony
Things
mcgee
##resh
1942
strangers
pinnacle
##ame
Fist
##zman
icons
veh
biology
symbolic
##culture
becom
connolly
intending
reuben
Independ
snarled
SUB
martha
nessesary
##outs
contrasting
cynical
enem
different
dart
dissapp
##cans
brooks
civic
unleashed
~
ella
brace
presenting
##ailed
pistol
barnard
receives
##REA
amplifiers
apps
hate
manufact
kyiv
tied
receiving
##veral
ride
Firstly
safer
1400
urges
##ss
intercepted
1793
hybrid
Middle
dialed
##wash
##pped
afro
raj
hangs
polit
Petroleum
##versity
DIFFER
swiftly
branched
finger
gently
spir
produ
##ul
flora
[unused177]
involving
keys
##teach
creditors
au
flush
kicks
succesfully
reflects
##chn
##ina
karnataka
muscular
romanesque
luce
shoving
##四
vii
##÷
camels
mosquito
incentives
rocks
portugal
taluk
philosopher
##nated
##thus
archipelago
service
document
synthesizers
yog
五
ag
backseat
mons
##mie
[unused201]
stolen
##ute
teatro
office
白
shire
chandra
panther
deser
##aret
transverse
heritage
##hind
##omas
respect
homestead
##む
attacked
91
tough
mentality
##fire
porcelain
carr
##meyer
pricing
cambodian
fanny
wheat
prevailed
mated
route
cabinet
affect
files
sociologist
nailed
resented
##haw
effectiveness
ryan
empathy
##need
immig
riks
peaked
apportun
deepen
shortages
stimulus
walk
ponder
teacher
raising
televisions
##amental
squirrels
##nts
[unused796]
##zko
reviewers
ev
##arage
purported
enlightenment
dodd
##plement
trailed
##uses
athenian
tampa
installment
broker
##tom
##channel
clip
filtered
thrust
contrasted
replacing
[unused579]
צ
right
corpus
directs
median
mil
imformation
fairbanks
display
es
##ท
mozart
##hita
preston
scrap
abducted
rationale
ik
consequ
[unused595]
Indonesia
mathmatics
[unused248]
##least
col
fri
classrooms
##aid
backgroud
consultant
##dication
##rosis
##ils
loft
arcs
desmond
techniques
agile
enroll
Osaka
brooke
penalty
##ene
##ᄆ
walkway
asso
hence
HAPP
[unused82]
##Therefore
argus
##tion
##dden
##Like
transatlantic
##]
noticed
professionnal
95
shawn
starter
##pled
springer
mistakenly
lon
overw
⁺
sickness
SOME
##city
subordinate
##vances
##ต
utilizing
##anty
distant
explosion
limits
oxide
sandwiches
downing
jogging
imprisonment
temperament
subst
pursue
youngest
enjoying
impl
1729
likelihood
Hollywood
ב
hailey
cartoons
patton
saturn
##feld
##rvis
grins
neu
Des
working
##ciences
roofs
##ey
Bang
lash
airport
profe
cars
##urized
gomez
##iom
Lets
brighter
eachother
accomodation
lower
threaten
proposition
frigate
ronin
crisis
ŋ
spray
decie
Mac
swamps
commerce
encore
101
##history
thwarted
adaptive
easing
hepl
understanded
spp
hiss
##From
##aure
„
War
moshe
manson
Un
##het
##oors
stammered
peripheral
despised
[unused837]
paced
barbecue
plaintiffs
occasionally
##rn
##idential
##博
postage
##mc
afar
Cost
1800s
[unused764]
##ett
##unication
idiot
##engine
maximize
##ivation
experiencing
mannheim
##wer
[unused785]
eating
paste
[unused269]
provides
pollock
##zzling
graz
BUS
atract
##ze
pianos
[unused166]
brunei
holland
##gled
knocks
parallels
reduction
lime
##dson
pamela
invo
##ilies
1890
demanded
neglig
475
##iture
identify
ceded
##uria
sherry
vu
1727
ama
Grad
ventured
wednesday
08
[unused723]
reasoning
##velop
purchased
ordering
##sure
stro
valued
Pic
discussed
##anal
flinders
hoffmann
directing
powered
镇
posse
compute
confining
delightful
##ounce
bran
weir
##uss
mccain
##Life
juice
clubbing
unicode
abolition
hummed
##All
South
tonnes
fingers
attended
##tted
##ha
liam
m1
importance
arias
##weig
symptoms
overly
crew
yemen
satis
prophecy
##ately
blond
grenada
dickson
##solete
acronym
solar
##tern
[unused667]
taped
notebook
##market
##amen
choi
elijah
oversized
sorround
danced
##deed
heros
##front
##sant
levin
journalists
landlord
barrett
hospitalized
announces
were
##asting
stretch
billboards
##u
##ainted
consent
requires
feb
##dice
voters
##haya
eternity
·
mocking
olympus
visions
##dio
sect
sentencing
advetisements
erupted
##urant
heidelberg
antagonist
197
##pt
goa
himalayas
profit
##caster
clothing
undoubtedly
lausanne
fenton
Sometime
electrification
beats
zero
supply
distributors
waterford
liberated
食
政
misunderstanding
[unused356]
prevalent
faber
passed
marathi
episcopal
When
mechanic
americas
damned
anzac
venture
pedro
mars
huffington
intuition
soil
1960s
reassuring
tatar
Recent
flattened
headwaters
##ου
punch
invertebrates
columnist
##gny
rico
currie
##national
2012
paint
##aware
##lag
releasing
genealogy
fjord
unlucky
ץ
replay
legislatures
prod
jacobs
clash
differential
##ein
jett
daughters
cricketer
nantes
doors
##peci
therapy
separates
##ive
oriented
depot
destroying
fold
bursts
entrepreneur
gel
sega
##PP
rbi
clinched
paradig
bavarian
rattle
moved
plain
##dai
##そ
vengeance
possiblity
##fic
broadening
dictatorship
intimate
supervised
##erina
groom
storytelling
##free
rot
katrina
##ao
subspecies
advertisment
nowdays
dominion
enraged
49ers
hourly
rams
endu
##tidae
##BO
fellows
concrete
[unused209]
theta
parkway
ferrara
exerc
1911
##fully
demonstrators
ɡ
ツ
garant
[unused161]
pepper
##耳
##TIS
nobel
dow
nowady
kanye
aca
1832
##inas
276
##meter
1878
laughter
solutions
##pher
poors
achilles
##inh
##ritan
##tile
##Te
Rather
##br
encompasses
##mine
##LY
georgian
##rrell
##ill
##although
call
beverages
later
woul
modeling
##ortant
correspondence
##cked
[unused911]
addition
had
unconsciously
266
1725
##lear
america
donaldson
acceptance
Overall
uzbekistan
##icipate
##lines
##boy
leo
lessons
renovation
##cine
rn
counterattack
rightly
##gered
ve
Char
1664
candidacy
satement
neighboring
population
degrees
dogs
##ficial
##oung
##Do
tro
ozon
[unused25]
[unused876]
##ju
undermine
Fuel
laurence
nationalist
discarded
takers
monarch
tru
wendell
メ
among
1704
WAY
chun
##sque
sovereignty
##ctic
##ery
comparisons
amar
##uming
arrondissement
respects
##sw
##laim
##this
head
exciting
sanity
jaguar
applying
eggs
##omen
##erstand
governements
##aed
tests
[unused666]
##Though
##hr
crews
legally
individualist
participation
barr
task
seeks
togo
##ury
stoped
summar
cou
？
##movable
billboard
overthrow
indoor
shaved
wol
##iterature
snort
eagerness
glands
[unused659]
avoidance
totaly
degrading
sg
##rg
##zos
##ared
##pret
##wat
spilling
penguins
unharmed
judic
dominican
intercontinental
permit
##bby
მ
blur
arte
grapes
hats
##real
##rations
##another
sould
spelling
melee
##nad
personnel
administ
advirt
instru
henson
##ffa
##comm
tht
plat
sara
kitchener
1.
havent
##static
##aurus
##eux
album
brethren
leonard
reign
##rane
historian
exits
whenever
##¶
##kong
swedish
daring
required
hurling
exiting
deploy
darwin
generalists
##spar
flickering
bisexual
cure
##odle
steer
##anist
##pta
forsyth
replace
56
schol
unlikely
attacking
detachment
external
145
fronted
Every
soothe
shouts
opportunities
##gis
sorry
drunk
##ividual
bronx
subjetcs
proving
evident
1941
anderstand
ME
handy
affects
silicon
synonymous
waterloo
1620
arguements
##nivorous
oc
##usible
severity
leash
ralph
jean
##print
ہ
サ
bequeathed
xu
gazette
frowning
##ete
symphonies
Polit
rb
gum
[unused301]
##rama
holes
1897
##ত
az
paternal
kendrick
commotion
refer
applause
assessments
##uer
##urope
component
haired
aristotle
seen
jus
apical
W
disappointed
bankrupt
##region
greyhound
wit
clapping
##bain
proble
##virus
##hell
mini
bold
Bush
marxism
sleepy
earl
parenting
groan
vari
reward
absorption
landmark
othere
booker
notably
∂
psychologist
caress
[unused155]
ancestor
##rip
drew
jerked
[unused472]
sash
nebraska
technolgy
##yed
##inda
drugged
ə
sci
[unused681]
tras
[unused945]
##aci
rewarded
hull
[unused628]
##і
icecream
187
burn
1841
##aken
##iger
solemn
##க
##isticated
##鈴
massif
politely
bomber
##get
##ragan
ghost
##izations
influ
ad
olson
Therfore
##etive
metz
##bbies
rosenthal
axes
dice
seconds
patches
misleading
pursued
respond
indoors
acheiving
##ħ
enzyme
##sau
rhea
violence
stud
##dley
##bbled
##pp
gibraltar
cub
##consider
controled
bushes
lion
##vo
institutes
##vies
[unused234]
[unused569]
gillian
arizona
interact
contrasts
flute
communitiy
##bo
valves
mild
395
prompt
##cytes
churchill
##my
##very
high
##alent
famously
##usively
polymers
himself
article
drone
operation
[unused965]
Young
##alic
portrayed
##cuting
bussiness
##lishing
##Hence
kala
daytime
nice
withe
##ION
babe
mobiles
##alty
wards
reproduction
ma
antilles
☉
Jack
schumacher
psy
Johns
##ens
speedy
gangs
consists
comparative
versus
##tley
博
newark
policeman
naia
hussein
gaping
google
theme
##ceptable
##eo
cameron
updates
latino
abilty
undergrad
impressions
originates
resentment
jackie
prose
##bags
lucius
simulation
##rm
viewpoint
choosing
freddie
aromatic
warlord
##nsk
Emp
indy
[unused117]
##ron
petersen
turnover
bowing
EXAM
airfield
encompassed
musique
##cts
##iness
foe
##shin
##Both
##rza
##etic
montana
pueblo
offsp
matter
decreed
##hood
exemple
similarities
religious
exeter
LEARNING
berg
##economics
₈
chases
official
kg
Asia
ADVERTIS
calendar
pract
significantly
purchasing
consciously
sawyer
##ps
##her
花
conductor
confusion
##力
##wenty
powerful
##aha
korea
##years
electrons
baronetcy
##tus
scorer
נ
128
principality
##VELOP
salvation
basal
altru
gerhard
capable
caledonia
leads
journals
post
##分
54th
##best
flexible
reformer
##UCH
mused
nape
seven
international
programmed
internment
tremendous
##erch
macleod
defiant
jamie
pounding
confluence
homme
isles
symposium
waved
above
infrastruct
reconsider
vedic
##jima
goat
nod
##aman
volcanic
One
fontana
persuasion
circuit
door
ds
narrative
conde
crush
helmets
metallic
##unts
sixteen
fascist
naturalist
WW
adverst
transf
choose
fulf
ages
academics
##uh
grand
##know
antony
buccaneers
##grants
##tate
cholera
nay
claus
temperance
##AT
IMPORTANT
0
recreation
##မ
cultivated
##inder
increased
ᵀ
Facts
##ulsive
tipical
##ue
neon
##born
longest
##aiton
TH
subsidiary
##原
[unused448]
hazards
##zi
persuas
chester
##tula
kapoor
820
strengh
grasslands
newport
tyrol
##A
roger
##creasing
##elli
##sher
1765
cassie
missing
doo
discs
ronan
jc
shop
comprehend
rehab
evil
barbados
thinkings
wan
union
stilled
conve
derbyshire
measuring
references
##ntation
ং
##ந
##especially
ন
cages
##°
##One
perfect
devel
##ending
,
accusations
##known
cass
hackett
##epts
consegu
progression
gulped
elimination
##riend
duplicate
WORLD
branches
julius
sellers
##ʃ
physics
##ⁱ
##eous
##elle
soldiers
nicholls
serialized
william
uncovered
solution
drives
ま
247
feasibility
hung
controll
2011
[unused901]
press
ನ
frames
duke
eras
unanimously
##Lets
tarvel
ipswich
napoleonic
##urg
shaping
##anse
needle
##rid
Tower
bases
ign
intentionally
ᅲ
partially
stride
hua
##wad
Soft
bruno
borg
sailor
hurd
ble
gazes
burgers
##sdale
worms
relieve
##race
housework
compete
infact
takeover
luxembourg
nutshell
##’
##With
॥
nak
##ulously
[unused818]
successful
buena
fab
##ERS
correl
[unused522]
Angeles
##modern
steamer
1864
appealed
portage
knowldege
##On
regent
enlisted
organiz
send
interned
tome
Fewer
served
Specialization
1b
om
jurisdictions
corey
ax
telescope
##rained
##rut
invoked
concludes
granting
weekends
National
winked
althought
Mass
leon
ross
Columbus
healty
st
cinematographer
rick
mist
pentagon
deception
rights
derivation
no
Mem
settler
disregard
##itially
##vant
##points
Giving
##₃
##cala
##uance
setting
recess
penal
salts
##body
ship
##esa
companions
##atur
provence
rendezvous
[unused484]
underl
heavyweight
Same
bertie
revenue
heaved
ward
forty
laureate
simi
prostitutes
scripture
##ifications
surveying
sprayed
incomp
launch
##ual
indexed
battalion
blocking
Given
##edance
plases
lobby
dealt
advance
odi
thoughts
healthier
##qu
##kal
ス
ky
That
laurel
Art
eats
knuckles
nic
##Today
theirself
Ange
thinking
##bably
cree
Later
quality
kent
seneca
ecologic
irregular
starting
olivia
##erik
radcliffe
##sling
menon
##ʊ
Experi
##gens
plaza
directorate
[unused872]
sniper
##inae
marcel
cartwright
ino
##iegn
##lithic
expenditures
Produc
sensual
ᄇ
ₗ
argue
relaxed
impetus
drops
indictment
diversification
fas
functioned
gt
theatre
AM
ks
##>
chelsea
##ames
##54
dharma
##fficiency
exausted
##ricts
stefano
##ricting
cocl
##十
##rene
aegean
Main
evaluate
vertices
pile
snack
eun
talent
KNOWLEDGE
ngo
egyptians
votes
renaissance
##mit
ambulance
awkwardly
masovian
##stock
reorganized
harmon
abst
commerical
bathroom
nightmare
BUY
##abad
##outing
Formula
##itzer
[unused123]
##ical
[unused567]
sub
dy
looming
##Learning
yvonne
inherently
kobayashi
faced
oce
##rian
##standing
stacey
partnered
favored
2021
downs
##nz
##M
##mere
reductions
retained
##ے
##ken
manuscript
atoms
binds
concussion
salt
locating
##eman
sco
birthplace
dowager
1944
inhibitors
forged
##blem
Sports
##fest
aval
bu
##dent
decimal
allied
pots
expulsion
respons
thrilled
dev
bourgeois
##wart
pp
welles
cousin
ambassadors
yunnan
acce
joint
saline
##def
Secondary
##lists
gadgets
disappoint
##using
valuble
infinity
dilemma
niccolo
concurrent
11
##estry
purse
oblivious
trave
##irty
buffy
decreased
memorabilia
##ided
[unused127]
##taking
repertory
groundbreaking
inj
1970
##care
##ills
tonga
paula
deity
sf
##Actually
magnet
lima
outcomes
relie
##ovic
centrally
##son
Population
þ
observer
thn
subsidiaries
##zle
##itivity
histor
chain
activities
ʒ
sindh
economical
bain
funn
una
innovation
wool
bp
mug
##pell
##lk
accu
interrogation
translators
jimmy
declining
##70
##Only
ₘ
##tur
severn
monique
android
##pie
lung
sealed
medallist
bullshit
sulfate
curricular
mei
ா
bender
##mates
artifact
1739
comunicate
##iya
maureen
utilize
##ako
nair
contrary
##ric
merge
##developped
goaltender
likely
##ivision
##ff
lennon
mugging
yoo
##₂
bavaria
fe
botanic
freyja
##rol
1988
nadu
##orth
金
[unused690]
must
unkown
##ツ
bandits
##maid
habbit
reckless
##tries
gasolines
acut
participants
##43
trading
favour
hoisted
##sms
lama
光
Gate
上
##community
bayer
magz
[unused188]
spes
assassinated
stressful
medecine
coutry
[unused890]
knowlegde
retired
wearing
comprise
vh1
victim
dumped
##anch
##celona
レ
astor
##nay
leverage
suprised
bonaparte
watery
months
ditch
/
##mos
fortifications
##mist
inning
blinding
pride
##nde
mirror
##გ
risk
##cana
most
undrest
gunners
translations
horror
brick
irene
dashboard
TIME
advertisse
hopeless
revolutions
residency
sheffield
lyman
physicians
uncles
oakley
advet
##load
suceed
fol
dahl
##oni
fill
Taj
bai
fine
iii
mandy
redesigned
ய
sticking
recre
considerate
compiling
sem
salvatore
NEW
lincoln
nation
steelers
commentary
desired
exs
hawaii
flank
superficial
kurdistan
ours
academic
reunification
emi
##bular
played
oceania
##asing
recie
lounge
bs
greta
ut
aso
##張
palmer
stunt
[unused80]
ecos
curran
##plo
[unused446]
david
idaho
maiden
##oned
assembled
volount
convictions
##mps
##wives
prem
yao
dorothy
adventurous
categories
nordic
kaplan
restraints
##‿
##psy
##tag
edouard
demi
France
##xt
ி
valiant
amos
swallows
rooms
swapped
arcade
##enger
ritchie
[unused874]
porte
talked
##евич
asylum
recomend
nuclei
[unused251]
invasions
##Bec
Med
alarming
##Your
ions
whites
gunfire
mechan
standpoint
hostess
##gin
##itable
##rp
proffession
手
ш
inhabited
portland
hood
##tman
##illy
calcutta
##rogate
None
experimentation
morale
disapointed
staples
souls
214
catastrophic
wastewater
instant
scope
mclaren
²
champion
avenue
royalty
##ひ
softly
pursuit
calc
carnegie
##pose
yelling
##berto
funde
##ilities
belief
nashville
##ota
reinforcement
hoffman
distributing
following
##kka
##uase
workout
unto
[unused237]
paralympic
##mussen
##AN
vintage
jerking
crete
##ounds
ranges
1846
shuddering
leave
rig
scar
buster
baggage
ron
##ப
比
monumental
##encing
[unused150]
decl
##line
##lb
kc
tournaments
encouraging
##asion
##dp
whcih
graph
additon
turf
wides
##い
connects
ಾ
grill
classify
##estern
us
allure
##sco
evacuated
phenomenom
taxation
butt
##24
sticky
unpred
cole
mantle
virtual
##riety
register
anhalt
yiddish
nrhp
31
cremated
coloured
gastropod
##ი
punt
incapable
mermaid
any
##then
designation
darting
tod
##ham
unions
partridge
poeple
carbon
bud
agriculture
keating
learing
Making
dyed
63
themselve
##ो
architectural
drop
serves
##technology
##oids
##jee
##尚
[unused952]
unhealthy
cult
ɒ
York
clifton
237
positioning
bodied
foo
##hta
learnt
anarchy
distances
##plane
junction
##erman
##ends
2007
[unused51]
[unused543]
##士
geometric
Research
rider
Environ
##urthermore
##ans
##uable
elsie
depr
##CE
touches
irrespons
brady
maternal
efford
performed
tobin
instruction
batteries
nile
ल
By
##₤
chests
##41
upwards
throughly
##Finally
pirate
Tai
Throughout
1786
scully
[unused200]
naughty
specialized
alberto
arise
##tlan
##bread
integration
nigeria
base
1646
ァ
tq
forums
marries
craftsmen
stairs
##ʷ
##glia
skirt
dominant
##ラ
aslo
##ك
nobleman
apologies
mund
commits
hooded
carla
ads
##di
spreading
proceedings
iceland
indigenous
##OUN
forecast
spectacular
##rks
dismounted
wind
deemed
##δ
consumes
ec
hundred
##ricult
[unused703]
lump
quoting
##‖
##you
##↦
##ema
specifies
[unused156]
##Sh
##ᅵ
pissed
##win
##achal
1806
honesty
・
223
outlawed
richie
colonel
[unused164]
Specializing
essen
canteen
aiding
assemble
coupled
appeals
tasting
peope
##書
purely
##stle
revers
##aver
counting
brilliance
inquired
zeppelin
[unused321]
##was
banned
councillors
lev
Beijing
##ribe
hospitals
witout
##bin
reluctantly
##ffi
princess
##rees
older
illegally
[unused539]
THINGS
classroom
##yard
##wards
predecessor
halo
graf
幸
acces
nearer
##plify
expressed
warmer
undrafted
acting
landfill
##itage
restriction
##zard
woud
interventions
airborne
retailer
customs
て
khmer
otter
disposition
implies
##uil
alexia
Finance
altough
recalled
blackburn
1987
wo
goog
pu
densely
Buying
frenzy
modular
compat
productes
Ple
ₓ
##tingu
1992
kit
terminology
revelation
[unused87]
packages
detailed
dife
##nea
treat
##VEL
##ng
crossing
edges
stripped
[unused985]
##maybe
lok
700
[unused866]
butcher
persecuted
##udy
##в
suce
Nether
encouragement
figuring
##note
classical
215
salamanca
bihar
augmented
##imic
satur
drawer
caldwell
р
##tical
##tao
clans
splendid
##aced
samantha
indiana
covering
elliott
terraces
ъ
[unused826]
min
##itzerland
50th
johansson
stra
reasonably
ci
##lessness
##asible
jones
illustrator
rates
##sec
personalities
becuse
warship
Vinci
##lating
purple
sheer
reflections
##rose
wedding
##tou
upright
##rant
fixing
##nig
permitting
diffucult
quan
##dora
ie
Scient
##law
revisions
natasha
protection
##nical
sh
##ow
dosn
’
hindi
thorn
##ORE
artifacts
collections
charismatic
serbs
knwoledge
walled
pear
sweetheart
turmoil
crunch
##inaly
cornerback
parking
##ko
##ayo
exploited
nails
525
dictated
hit
reprodu
penet
comedy
disp
##icity
carver
enclosure
mellon
##arness
nicaragua
nestled
vocals
Hy
seine
recipes
collapsed
##aging
stuart
##nging
almond
##‰
scandal
##ale
##ricted
##cepts
algebraic
psychologically
1815
shamrock
##kers
##mounted
glow
stinging
##„
eager
whipped
##smith
tolerant
racism
##ogical
simulations
inhibition
##Sometimes
caucus
示
氏
refute
structures
judas
cheated
##itha
1809
polluted
##lysis
b1
##Facts
##aki
yor
fourteen
spoon
indivis
granville
##mes
##ocytes
##cus
mutter
1667
visionary
trouble
##actly
tempest
competed
annually
docking
ir
##inge
shocking
chopper
voluntary
Fortunately
##utation
collingwood
kane
[unused388]
क
hammersmith
gig
libertarian
roll
beach
moses
##oise
bombardier
probe
##dorf
[unused159]
fresh
##oke
##kyu
adoptive
##ilan
ー
tak
capitalism
##13
##sat
creepy
dixon
skate
umar
[unused946]
fisted
##ppel
##IRST
shoot
CAS
170
calm
皇
academia
brian
farming
revival
paths
raja
norm
reputed
ש
mcc
lawson
silently
##anza
demonstrated
semifinal
shrewsbury
##ractical
##ttered
nosed
##..,
stepmother
##門
ر
venue
##rton
##ffled
hilly
efficiency
##uto
ties
steamed
tab
見
airlift
merely
taps
##ape
##pert
[unused313]
flash
wonders
##Any
jacket
##writer
susan
enrolled
eminent
brains
##izes
cann
lei
worldly
##iled
achive
rm
procedures
[unused827]
##gue
upheld
mania
[unused804]
num
Fourth
ji
mccall
1849
juvenile
##բ
##ults
[unused842]
‖
sarawak
##iding
##akespe
lenny
##oping
malawi
body
statemant
spade
WITH
##Old
##ingham
thematic
##sari
##uos
##cks
25th
##Le
Often
lamb
radial
##gal
nord
OF
tailed
THEIR
##yota
flyer
thrive
defines
troy
cochrane
##lets
craters
get
expertise
monastery
klein
calder
wishing
mushroom
##assing
stupid
wink
cos
sequels
myra
man
populated
ս
semiconductor
simulator
1956
nh
cortes
synthetic
##).
##qing
##ɕ
lightning
massacre
munitions
stabbed
cannnot
rape
abandoned
283
50
regime
baldwin
blankly
sel
refe
POS
wielding
##fess
##iu
##cur
dire
ignoring
parents
##enay
[unused320]
loyalty
convers
markus
comminities
##Nowadays
##kr
museums
depens
tbilisi
unusually
adventurer
bryant
materialized
dementia
##eau
heidi
arround
collapse
[unused168]
shrug
##normal
[unused677]
##ggio
dogg
hubbard
classification
##sb
##polis
canine
defenetly
nacional
##aran
vuelta
societal
periphery
rookie
##backs
[unused533]
[unused830]
mixes
Indust
performance
inconven
southeastern
risky
##oun
born
beer
notified
[unused100]
[unused847]
ten
symbols
cobra
##ress
strung
1782
##vy
tut
ghetto
este
##ittle
##Wor
communists
##lative
##naut
width
##child
berlin
cardinal
thorpe
##rook
jalan
speaks
##arth
cha
##গ
opera
##osing
##ף
unreasonable
keynes
silence
venezuela
milano
erie
[unused887]
town
wally
pitching
loved
hur
1728
informant
##be
##Con
chorale
پ
punched
##mouth
hubert
##abor
retaliation
Venezuel
hypnotic
orchid
[unused716]
department
reflecting
mohammed
##yx
##EARN
viola
lands
##cao
malicious
pooling
##logic
##ples
##igies
opine
defeats
‘
com
laser
predecessors
greer
palace
fuels
Educ
##hai
appleton
celebr
theodore
##cer
##kshi
booked
##ase
##--
everest
sour
書
depictions
nearby
名
pete
admit
eliza
Idea
runing
belongings
##tter
[unused27]
sniff
##rissa
##nder
##umst
shillings
regulates
critis
wilfred
leans
desper
cafeteria
##cademic
syracuse
plato
*
bernie
examines
##uram
[unused407]
##ficiency
ensuing
criticized
chuck
menacing
scarf
THAN
received
trees
bab
freestyle
cafes
lockheed
lurking
[unused993]
valid
consumed
##ush
wiley
incredibly
roommate
shu
##lette
futile
##outh
stifled
snoop
##sche
diane
upset
spared
##avs
Be
memorised
clemson
Consider
standardized
grams
subconscious
best
ultraviolet
visting
[unused930]
»
hierarchy
franks
whimpered
reve
blend
featured
[unused362]
oxfordshire
##艹
studnets
willy
wiener
xv
sloppy
##nberger
wilton
moran
##lli
internship
stuff
ধ
坂
yester
lag
elevations
bartender
##犬
numbers
py
##jack
tipe
former
statements
##BLE
catches
commu
businessman
looked
unfinished
terrestrial
payment
manchester
recipient
kruger
campaign
dime
##า
murmur
##ennial
##中
fremantle
want
widening
##strom
[unused33]
1916
nadia
trim
kay
##dic
tucking
vincent
山
arrogance
189
##石
royals
##uri
ramps
ace
costing
##aine
##lance
His
10%
appropriate
Any
आ
protects
publish
need
fresco
##aster
skier
They
derby
thugs
antibiotics
##artion
pendant
##phobia
1976
mole
##ள
chet
[unused335]
flanking
witness
pretoria
Everything
lan
bones
transformed
fault
sloping
varsity
##ʔ
rease
##ild
yawned
雄
kisses
##dly
##leen
bayern
gdansk
##ironment
painted
orbit
bilingual
##rting
President
recited
##onst
expression
hosted
##rae
substance
##ering
alternating
flanders
collap
smoking
exploded
lucinda
秋
[unused56]
##ano
afraid
##14
pearce
form
flawed
practitioner
eli
gujarati
dog
signed
mathematician
terminate
wolff
cad
consequent
##ndon
email
tecnological
clemens
##cons
Beside
ノ
##瀬
##ক
##idal
barrow
advises
##alle
arabic
barak
Already
##computers
couldnt
knowledgable
##mot
cinema
banded
catching
competitions
analysing
clashes
sprinted
reaper
marines
°
rover
sing
necessity
flames
malibu
succ
##?!
parry
##tite
plight
tory
##mation
vanderbilt
palm
分
byzantine
environmet
receipt
welterweight
econom
narayan
[unused37]
SPECIAL
##mei
unionist
produt
por
orient
Starb
broom
anxious
malaysian
container
1935
custumers
[unused417]
collection
immigrated
[unused396]
suggest
temper
moroccan
multiply
problems
corrections
##con
##met
°c
raid
dutton
likeness
python
offense
##nage
##wide
obscured
prefecture
##powering
belgian
##chnology
guardian
fiona
PERSON
lucien
##rac
geog
brenda
dillon
busiest
##ates
##男
victorious
##llar
Thay
personnality
tattoos
Thats
ancient
##thorpe
paterson
beatiful
films
gun
Conf
domestically
##信
exemplify
bristol
ц
vidhan
pools
Are
vert
hue
analize
photographers
thanks
emancipation
woodstock
##ches
exists
substantially
elet
bend
specfic
Industrial
converge
actualy
henrietta
realising
bobbed
vittorio
autumn
faith
[unused26]
odisha
1888
k
quiver
particulary
rumours
##』
[unused332]
plasma
[unused781]
market
practicing
fantasies
reassure
consonants
##ytic
joked
rein
evaluated
##istion
##anly
corridors
##Due
neighbor
win
dade
distrib
afterall
flag
poole
−
##gated
##quis
spectrum
with
fordham
##resses
[unused380]
otto
il
regarding
brightened
tissues
poverty
bowled
warwick
fox
burying
##ɣ
forgotten
п
acute
##พ
miniature
boar
pali
souven
patriotic
##umbia
harold
stocked
rome
timor
winslow
giggle
##erved
minions
vincenzo
attackers
somehow
##う
##zong
duff
kindergarten
flanked
roundabout
車
fortress
##...)
##ヒ
wwe
garth
CP
mckinley
confused
##ris
##chua
euro
##lizer
becuase
[unused50]
ankles
away
##mag
sculpted
sweeping
obv
jaya
anthropology
attract
##人
superb
conqueror
nova
morgan
telegraph
coastal
##viron
OLD
handling
courses
Agree
##nn
desert
territories
Friday
fledged
##ield
##國
##biology
##lema
##raine
chest
saving
##ustic
##ority
sk
ufc
chico
jayne
truncated
sovereign
cale
guys
detectors
inters
tire
ech
cmll
fading
jared
उ
bowman
hooker
##atma
shelton
cousins
domingo
jurisdiction
Technology
worcester
##rera
kirk
aggravated
compe
assassinate
[unused594]
elect
##lation
choreographed
mirac
honoring
knoxville
##oday
##ordinary
breadth
##ר
entirely
club
toni
avon
throu
##ide
##iple
##aturk
byrne
insult
hub
overst
##ლ
##oters
purchase
knowl
expedition
jesse
alison
[unused701]
accession
reservation
goblin
##hdi
problem
orthodox
tendancy
albanian
jozef
ho
##lez
clenching
[unused69]
##omer
unmanned
medicine
THINK
suspend
pants
honestly
Eventually
thriving
frank
incompatible
merit
specializing
flap
adorable
obscure
fluffy
##ocence
original
##12
whereby
consul
##春
##Secondly
##mart
established
bacause
##iza
##ters
##tani
enforced
clutches
##soft
wrestlemania
[unused770]
establishing
ignited
Well
gestures
manifested
finance
dylan
centimeters
esay
bur
##vie
agrees
simpsons
Education
##cive
##amb
cnn
boomed
forbes
pasadena
prc
##ong
cunning
[unused859]
mab
##と
insurance
techology
insufficient
likened
latter
whilst
aesthetics
vertebrae
##edo
taunting
estimation
airing
##great
futures
##aked
olivier
gritted
1983
pharmaceutical
110
extract
family
##rily
[unused184]
climbing
##ana
skylar
southampton
##tters
##rey
##Maybe
barrie
literal
motivates
ordnance
squadrons
ventures
gross
filtering
rev
someth
hammer
prominence
crossed
[unused133]
##zza
obeyed
flipped
september
taekwondo
society
##tua
keith
dangerous
##ulum
burgess
##rney
extensions
##vu
Washington
drum
1643
director
weighted
scarcity
##partisan
medications
Driving
##ility
charity
laws
skyline
subjet
cavaliers
inner
indie
superintendent
##enough
connacht
##ONE
appetite
acquainted
##‒
ⁿ
##utions
reflect
reading
ascension
##fly
sen
wartime
##kas
##uccessful
hurting
listened
protocols
perrin
sword
secured
discos
laughed
accessing
##ison
restraint
##mus
fay
aggressively
cra
organs
##eol
##ORT
sweater
fifties
canning
nairobi
urgency
##wana
metros
anything
famine
pembroke
writer
unitary
innate
insted
pitchers
tremble
##sis
delivers
constrain
swings
##rup
divorce
humble
pd
unrealistic
cove
Toefl
nonfiction
თ
##alt
slipped
##para
rosalie
##urity
buckingham
gen
military
sudden
title
##iet
##puted
crown
hammering
reported
[unused98]
capac
revisited
apples
Elder
ent
unbeaten
1730
routes
passive
microscope
della
travling
1980
seamus
satisfactions
neill
criticisms
##ona
vic
##miento
AP
occasion
nuts
joker
istance
majors
##vor
windshield
jammu
cuthbert
shaped
[unused850]
shol
##achel
##cumst
##ic
##iar
stereoty
extracts
instructors
26th
narrowed
its
##lore
diox
ರ
coronation
高
alan
flesh
oppt
[unused86]
##aching
observation
183
tributaries
technic
##playing
luminous
envir
smallpox
[unused310]
pin
aroused
callie
##bre
380
##unciation
piper
conserve
seg
後
##paid
kinderg
aquatics
telescopes
archeological
anderson
cheapest
stamina
lively
huddersfield
shoulder
torque
真
militias
##ds
mac
brightness
av
Tokyo
[unused740]
100th
##roph
programms
bored
necesary
sorting
crowley
coasts
rush
Pors
cheek
adjacent
remmember
sceneries
shorter
maneuver
niall
julie
##aii
underdeveloped
traditional
##9
symmetric
merger
##cet
rhodes
irrational
[unused697]
sprint
booklet
bjorn
##·
##rries
##anne
[unused307]
##qvist
dunlop
donating
prefere
##ols
1838
daggers
warden
vanessa
disapproval
damian
##uke
diablo
furniture
bind
##icious
squinted
sant
miscon
probl
##،
naming
centered
illinois
huts
mam
##eva
##tically
[unused217]
extends
youths
pascal
¹
monstrous
click
rejects
blazed
み
greenland
##rium
orthodoxy
)
[unused185]
equilibrium
##opular
energitic
disappointing
##lf
inability
##puri
won
##edly
Question
suspiciously
alexis
claiming
foliage
##rue
reality
##urther
##53
1746
Thirdly
##?"
[unused154]
9th
Todays
carving
yang
patel
##anghai
revolutionary
##everal
wizard
stuffing
follows
##crat
thoroughbred
yell
ի
##т
earnest
rafael
screwing
strict
caine
##α
nee
diffrent
begun
##esome
ignatius
kindergart
exclusively
ق
spherical
infantry
menace
sounding
210
fugitive
hatch
lake
##lies
singh
crawford
bard
nuclear
agatha
erika
overheard
gleamed
##tting
radically
valor
heiress
creation
darkest
intersting
beast
dissolved
online
青
irritating
##rigue
،
##55
[unused272]
fifa
convoy
1953
hare
##irth
persona
bryson
whales
engineering
yearning
maha
##planes
agitated
butte
clinics
Mount
##men
##tier
takeing
hernandez
arun
##tten
proportion
writers
mark
fleeting
##ague
oportunities
competetion
##see
subje
anglo
清
wavy
razor
##ator
seri
comforting
oppurtunities
##islaus
##Enjoyment
calgary
While
elevator
prerequis
[unused741]
grossed
prepared
alliances
conception
##How
noel
crashed
reserves
280
visits
##wyl
##owski
downloadable
##tin
facult
infants
shrieked
waking
cour
defender
scholarly
neighb
acedemic
physicist
##WAYS
fractures
##ateg
oclc
[unused961]
##high
rock
bogota
diferents
£3
zheng
##idents
lissa
phy
enouth
ID
bye
##so
[unused75]
asia
panorama
##ares
##間
##orming
performing
##inant
engages
##gno
eyelids
hardware
pancakes
beasts
##once
fantasy
ladder
wheel
clusters
skins
reworked
##vius
abstraction
##moor
heterosexual
clears
geologist
coil
darren
salim
majoring
weep
says
adherents
havoc
adored
palo
ghosts
bargain
saber
usable
mesh
nsw
inspire
postseason
scales
end
croatia
celebrities
riches
harvey
poland
##56
beetle
plc
accelerator
editors
fuse
mankind
133
kidnap
torso
capacities
hearst
stevenson
[unused980]
fraternity
rented
ebook
utilities
##UT
Austria
statutes
υ
[unused431]
closing
meeting
##cefic
spots
##hala
breeding
salute
jimmie
awareness
##ira
[unused966]
##IVE
ray
intellectual
##ius
1877
peole
backing
outright
descendant
methane
##dini
##cision
treasurer
contib
lateral
blue
nichols
##oco
botswana
119
##imi
nightmares
hide
##orable
##umption
authored
smirk
guise
assemb
plumage
sturdy
cores
immid
syed
##oped
colonization
emeritus
janet
[unused34]
acquaintance
injuries
dolphin
darius
emission
doub
fearing
technician
waistband
Consequently
subsid
remarked
strat
inventor
shut
english
throughout
continent
PRODUCTS
##hab
##ge
screwed
[unused296]
soup
hz
##高
honda
Science
pool
commemorative
Concepts
SH
nan
wrong
initials
designations
exit
against
##w
comedian
viii
Unfortunatly
judah
sit
##‐
cod
elephant
##hani
[unused570]
matters
succeding
sachs
##got
ego
##stand
lew
wardrobe
##gest
riot
##hrer
prix
[unused990]
sponsors
markers
attacks
excel
pod
implant
Own
##otide
casual
expands
ignore
[unused187]
##breakers
forbade
##rict
EN
hypothesis
learn
populous
richardson
roberta
governance
##nar
##tori
sandals
monasteries
野
antiquities
protein
turkic
##agues
##tative
Food
clearance
##Everything
[unused629]
matthew
##Having
Recently
##eyer
economic
reno
threaded
##iure
suic
imperial
presenters
ও
##va
##quence
showered
##gging
captives
##pipe
grasped
theoretically
surplus
lease
tact
differs
##arant
eta
lau
##dell
new
pen
orders
turtle
reports
curse
chased
dvd
ricardo
elaine
into
327
greco
peabody
##mous
12th
easly
graduated
phone
gary
naples
oven
overlapping
##icals
safely
meng
bastard
outreach
ave
maneuvers
subscription
##pw
ب
slave
remembered
grayson
stren
oldage
Naz
legions
enable
hooks
##lage
ᄌ
zambia
ы
relations
municipalities
crowds
desing
##AC
Ads
##iz
event
cage
TOY
peeking
##During
waterfalls
##ffey
blessed
##yoshi
equally
PEOPLE
punjabi
iroquois
##river
cornwall
[unused694]
mysore
bleed
##ship
##yuan
lovers
reser
eas
Second
jockey
asking
aviation
paraguay
expressing
backyard
[unused873]
spears
690
midway
wesley
trustees
drafting
impressed
commuinty
brewing
coke
Clearly
emphasized
defences
entertainments
##₆
Thank
loosened
torn
[unused376]
##irent
Christop
##₉
bono
misconduct
忄
б
anatolia
attend
ז
tomorrow
insert
reco
kristina
knicks
陽
parliament
##ᅴ
bern
positive
##herton
49
diploma
striking
coyote
##fur
248
[unused931]
##eia
##otti
##yang
tariffs
my
prepare
slater
friends
##hner
pacing
Eventhough
##aby
stockings
##belle
olden
escorts
auditory
nu
organ
excluding
coldly
[unused731]
##gative
Galile
suitable
rolls
kore
kyoto
trail
##bino
[unused844]
expire
excer
##moreover
differnt
##shaft
advise
creatively
flare
##y
investigating
nun
670
##ppy
souvenirs
Law
##eside
pt
moulding
occupies
kv
##iano
exhibiting
inventory
##rrigan
blossom
##fs
workforce
##前
##jana
airpl
74
##advertisements
whistled
##dle
remastered
wharf
curiosity
paly
Certainly
Chemistry
##acts
secretive
boyd
cholest
##ifiers
savage
econ
##ym
down
held
westchester
##ා
[unused316]
redeveloped
c
worthy
bray
eritrea
thumb
presses
gorgeous
##In
successes
destroyed
erin
reins
##roid
lim
##sby
koch
1763
needless
社
##amps
murmured
recruitment
fiddle
[unused710]
evangelical
clara
creativity
continues
aliens
favoured
reminds
desktop
76
baptism
Take
centro
expar
startling
aroma
##aria
rulers
revealing
##INESS
bull
oldies
mmm
##oub
劉
insignificant
instructions
[unused247]
We
open
believer
script
232
tabloid
situ
feared
feast
##dock
##ghton
occup
##uage
Japanese
duty
##nic
tarzan
beha
##bler
wcw
sch
203
islands
gardening
[unused730]
condu
bolivia
reviewed
##bee
##routed
psych
slovenian
##dman
aden
resembles
dakota
rep
Internet
dragoons
eastbound
##ŋ
##oja
eventhough
verses
tangent
relocated
aragon
shelves
relay
awakening
[unused706]
helpful
##र
spectators
investigative
tainted
adding
##sten
ₙ
خ
mansions
##anted
welsh
handsome
ncaa
internationals
towards
oppon
##orough
##stan
##vina
cupping
##stown
[unused503]
frame
muller
prog
1870
bahia
lillian
eny
painting
##VD
perpetrators
1767
##hirubhai
##学
propulsion
##prove
mur
##proving
championed
whore
fargo
Curie
johan
buzzing
##gingly
home
Madrid
amnesia
inception
##yna
jp
gram
##uded
##clops
##ax
routed
expects
penelope
##ister
upstate
Could
180
towing
normaly
grafton
[unused439]
uefa
##omp
blindly
1990
size
[unused715]
Summar
conj
bouts
allways
[unused553]
##omet
zhu
toxicity
bee
immortal
settlers
mas
bruce
commercially
##ɫ
retreat
possess
##գ
##nson
battled
forcefully
##ph
columbus
overwe
vicious
1995
##THEY
rethink
distributions
##plan
##werk
assign
loosely
hapiness
nest
Learning
mohamed
inquiry
alba
texas
##less
##chon
petit
delaware
hel
benji
##pathy
vivo
bonfire
##aded
42nd
[unused265]
[unused705]
##ium
confort
[unused353]
tex
encounters
inhaled
detroit
wealthy
##otal
porsche
whig
captivity
basalt
wylie
↑
##dham
keep
##ESS
wanderers
dialog
timer
App
OP
gravely
##iform
staple
bobo
alg
proposal
##play
phyloso
##hetic
morden
traveller
somethin
cote
[unused935]
##uj
##W
##bur
resol
covent
##code
alain
Bill
peeling
##rgan
THE
clark
gonzaga
downwards
prev
lacy
air
##dote
shakes
elsa
##gley
uneasy
Market
ted
active
##ocity
verdi
16th
hat
announcements
##alis
painful
strands
##evich
houston
##nsen
causeway
grants
bark
looser
progr
reassigned
merging
rough
amman
interrupt
Gone
humor
—
afterward
beyonce
implementations
revolt
cambrian
foundry
##B
oasis
[unused893]
##dier
##obe
夏
liked
mri
multiple
effected
159
carnival
gallantry
ruth
shakespeare
plead
cheep
extraordinary
admiring
samuel
mouth
bury
comod
[unused393]
prople
ђ
##タ
storyline
##verance
wills
##isman
##lham
##irement
orchestras
[unused170]
embedded
smashed
planetary
ultrasound
reapers
refresh
ele
almeida
##owed
qui
##ག
vietnamese
##lington
##heim
legitimacy
span
em
undergraduate
plains
sentimental
plume
[unused654]
##fere
մ
##ras
cooler
א
harper
winchester
furthermore
level
declares
traffic
tong
vain
kilograms
IDEAS
succeeds
contact
##who
##icative
giv
myrtle
taft
[unused114]
vienna
nk
scraped
overtime
them
##iation
dal
chasing
##hul
scotch
##པ
mus
animator
apr
pop
lancashire
jealousy
secrecy
proliferation
##quisite
##伊
meta
enrgy
mohan
taut
exploring
motion
royalties
reconciliation
encourages
asshole
emphasizing
comparing
##system
puppet
[unused836]
export
arrange
worse
supernatural
tip
washing
##bold
##nent
hazard
##suka
##hedral
##While
dusseldorf
broadcast
##zuka
ulrich
accomplishment
amd
##Ne
##щ
carter
annals
trident
##balance
SUC
Present
partners
##egorical
[unused711]
quilt
hutton
disappointment
trumpeter
interlude
sumner
jesuit
parisian
br
##iments
comm
hid
pregnancy
progressing
motives
##yd
resposibility
##এ
dublin
audi
sizable
expectancy
ce
##quent
ส
reykjavik
billy
casablanca
enj
defective
ぬ
pressures
##med
##arr
trap
##chus
area
##vs
##rical
scientists
##master
spitfire
guild
did
sold
troubled
expriences
##ology
kannada
amm
cv
prominently
##arts
critically
##cess
oppos
reservoirs
##aly
intervention
##ency
gasol
estimates
##ignon
##eading
hee
##!.
lacked
ハ
[unused649]
aus
volcanoes
peasant
brussels
lanes
poets
##omes
1933
carried
##bei
##վ
##umed
simplicity
##ட
##ij
stairway
BET
mate
##atomy
node
##vell
Becasue
mae
spark
aristocratic
##Some
kathryn
##mack
equation
##ensburg
##ʸ
garrett
oper
##ence
30.
z
readers
##hal
stake
cowan
lighted
casually
##tze
ambush
willingly
309
evidenced
differentiated
winning
ण
##zell
stalking
Thomas
##lid
THEY
[unused7]
woody
Grand
newcastle
discrete
luck
##piece
entertainer
##neas
##kia
drums
##₁
স
elastic
pdf
thud
tourists
##ali
obsession
smug
##istor
berkshire
##eiro
vidal
lynch
everyth
diagnosis
##oust
林
ponytail
activism
strolled
combines
##path
sensitive
##gent
waivers
tapes
##since
BILL
stor
month
gonzalez
composed
messaging
wolf
##angh
syllabus
##tch
ministry
bravo
turning
telephones
堂
↓
saratoga
tw
synod
##phile
Ist
madeline
diversify
uniquely
humorous
##ions
governmental
##UM
##lz
##gir
brennan
Ty
brid
difficulty
fibre
substantive
##zam
insides
##runa
cbc
##ern
trilogy
##ivar
statewide
stabbing
##aing
inscription
wii
exercising
tips
backwards
##llas
bsc
lastly
sprinter
punished
burmese
nothin
widowed
##Cola
priest
worsened
peck
purp
##yar
##ッ
systemic
georgetown
chateau
mutation
ท
websites
chords
jurisprudence
##thora
moving
English
foremost
windows
carved
metabolic
##nowadays
hygiene
increse
incarcerated
enrollment
fitzroy
Bu
##CI
ᵢ
cleopatra
leaving
CEO
donot
##esides
virginity
benfica
Conversely
orange
thirties
patient
switches
provide
Parents
chevy
fated
arc
dress
famous
pere
What
##antial
##aga
##ulio
mile
experiece
forgiveness
spouse
Finally
##neck
helsinki
##gum
var
[unused402]
##?
capturing
##lite
こ
[unused514]
##llan
##isp
converting
grace
lawsuits
hezbollah
##uated
##テ
remnant
promoted
privately
dinah
##infact
prevents
##umi
louder
##idon
canoe
statistics
marching
chuckles
##।
##ᄇ
aerial
fearful
initiative
信
“
debut
baku
tilting
156
approximation
push
##а
philips
##travel
acid
##sh
reynolds
martins
musee
operate
##uchi
co
cougars
##ward
raced
update
1715
mend
[unused989]
ლ
clown
subjects
traced
scissors
tobias
sensible
groups
evoluate
ʎ
chemical
立
≈
frontman
[unused323]
bose
seminole
importand
lunar
##sibility
##jian
modernization
coupe
##rone
##eim
1200
expeditionary
[unused273]
internationale
oneself
tammy
papa
##vich
step
##egy
gymnasium
existance
也
sherlock
viewing
cia
priory
illumination
commence
jarvis
absolut
So
ligue
preface
ACAD
phd
glided
furrowed
blurred
congo
whould
##“
passageway
plymouth
catalyst
upon
selection
baptist
surpr
contributed
sunk
##cute
extraction
gothenburg
swear
##kovic
pollut
lif
disorder
331
stemming
qc
##esity
charging
tedious
cortex
accep
kidnapping
##od
##久
eg
deodorant
dim
guess
corvette
##he
Kore
owens
##ogies
##cept
disrupted
##æ
exag
freshwater
misunderstood
##ntial
bow
##ан
peop
mix
mccarthy
brno
##ub
ars
case
188
yoon
##—
##eg
yoko
##grant
disciplined
convenient
profitable
##ocene
PRODUCT
##logists
joung
achived
wider
54
⋅
thief
##nee
scanner
უ
##⋅
1856
sanctions
immune
vicky
deteriorating
devastated
asean
barnett
widen
##uade
preaching
##仮
sparsely
apache
##inded
##itty
##helping
##dos
likes
##ators
##vious
juicy
egoistic
##being
sierra
sockets
##duc
##top
Following
Ge
tnt
taxon
francisco
finances
##›
compl
roots
substitutes
protruding
simply
##las
About
##itar
##urne
vanilla
##Where
wilcox
Times
##atal
##urate
neutral
metres
g
owing
?
comparision
cap
の
[unused583]
snakes
unw
offence
definately
harvard
佐
##reg
##orus
saga
स
kilkenny
exceptionally
kilometers
##『
leafs
responsab
cot
##Gener
pale
##kes
paler
disclosed
fremont
hated
##ɑ
chant
nursing
mesopotamia
##hein
##vio
generate
stellar
abbreviated
conjecture
buds
sichuan
##elly
supreme
doherty
##zano
suite
buchanan
##int
cloths
hilary
frustrations
suspense
smoothed
ian
partisans
sponsor
##icles
##witz
neib
voting
##oured
streets
[unused401]
##oby
hamid
leak
##strel
occuring
mecan
##oire
vassal
sits
burundi
##fighting
neutrality
1859
laval
hotspur
gossip
backb
##dun
##wee
assistant
breeze
FAC
quota
[unused641]
Long
½
##stadt
##idd
fail
hunters
registered
hopped
samba
nicely
disbelief
angela
resort
shoreline
mason
accommodation
##aru
thames
##versely
cobalt
##nr
spitting
##gh
closed
229
sucked
##rani
disdain
topographic
shortly
##ا
Prot
burdened
table
suitcase
reunion
##千
##ness
limite
ball
bela
tyres
##省
##ulating
284
diagnostic
builder
dresses
Hit
cun
definitive
occas
placed
520
##rard
あ
1666
Steve
upstairs
zones
##town
lumpur
[unused216]
attached
choreography
##ipp
##cc
claudia
prophet
##ainment
softball
##lak
numbered
scientis
##OSE
summarized
ressources
[unused437]
bytes
DO
forewings
[unused295]
incre
plata
mayer
##ddy
secondly
##iles
##世
many
##illo
communion
artisans
##rri
##vc
##due
bearing
burma
quintet
mustard
dream
sprung
E
purdue
antennas
bucket
##during
specifications
bancroft
##etano
Ye
America
thoes
applicants
zaragoza
##church
someone
whitehead
ridiculous
jess
treatments
[unused108]
transit
##龍
happen
governing
##udge
christina
beacuse
chess
[unused141]
Altough
##ocated
battleships
fray
##kla
##⅔
##rya
ς
ratios
supp
italians
refuse
##iends
goverment
[unused317]
cornish
excit
concent
modest
persu
graeme
འ
Work
his
tis
muriel
manning
##ministration
##འ
magical
twitching
businesses
##tel
imp
moisture
malacca
homeworks
chimney
complexes
##ssar
lattice
NI
[unused617]
lerning
evangelist
constitutes
extended
bum
##dine
olympia
diplomatic
գ
matthews
helmet
##ersonal
nausea
gonzales
Literature
motivation
##urning
maddy
estonian
vastly
unicef
permanently
karma
spl
[unused1]
algiers
##gu
doubts
WANT
brow
jang
migrant
´
indira
tasmania
FROM
##ctable
aside
media
mor
albert
quake
castle
armored
belize
##2,
discovered
exhausting
consistently
4-
begging
subsp
##rio
higgins
##gina
##ause
exic
da
zane
advantege
##ular
poznan
continue
dia
chickens
resign
##iration
chartered
bernstein
miami
transcribed
skies
fein
nominate
socialist
Nob
tanner
necessitated
partisan
##Know
195
vegas
fost
proccess
synchronized
constituent
650
stunning
broken
controller
prohibited
Therefore
toll
##dles
ple
admission
competence
blizzard
##:-
##utives
patients
attracted
##IT
embodied
propped
housew
zebra
question
tourism
mascot
politics
swimmer
morally
indiv
##ষ
##edge
uranium
muhammad
inputs
AB
%
abs
revolver
##etermined
United
agg
wath
complaints
##part
guam
coating
##ys
peacefully
allah
##anu
determines
futh
screenplay
mali
forestry
##amp
ripping
keystone
biker
mustache
comercial
devast
motorbike
[unused754]
genoa
enriched
advertisem
kidn
colonial
funnel
shielding
##olis
pristine
##ova
buisness
##smo
Day
honour
overturned
showers
hispanic
ash
properties
[unused661]
fears
##pack
recovered
radium
425
obe
announcer
[unused558]
filter
##hin
patriot
56th
##yes
meal
alaska
##art
berry
circulating
publishers
241
##ufact
##omm
underline
##imov
##ote
marble
onions
[unused619]
identified
communicate
μ
yorkshire
arnold
quartz
joaquin
##pensive
canberra
##"
590
##ilit
then
1873
restra
gee
##ワ
conl
spaced
marshall
underwood
compon
##ₑ
##ados
blacksmith
##aren
ru
anglia
demographics
gree
##oly
##eric
teased
##ages
elevators
##ust
hottest
Egypt
[unused304]
ᶜ
autonomous
jackets
##osaurus
motifs
##sleves
pal
evergreen
##llowing
jasmine
WHO
四
ram
151
[unused772]
States
GET
advertiment
reck
1762
bonuses
agreed
hesitantly
intimacy
[unused65]
##ldom
##kti
schools
bao
##bution
uniqe
##∅
##mal
amout
camille
saler
木
California
approved
Succes
camps
election
##pecific
desperately
crowned
youngers
theorit
fundemental
outlying
wis
sniffing
performant
fa
contracts
章
##athers
##ceptions
raises
aquitaine
paranormal
bowl
medals
sakura
ration
ponce
timbers
clover
administrators
barrel
cheung
galen
musa
unfortun
Da
##idence
mustafa
bows
disliked
trillion
cheered
James
Spend
##lassified
jointly
synonym
priorities
judiciary
maternity
atrium
eld
Fe
odds
##phate
##effects
lazarus
janeiro
##uche
la
gemini
negative
norwood
##order
altar
intim
dirt
elongated
lobbying
severed
+
mergers
[unused175]
##away
hmm
scoop
specially
85
##pressive
novel
wed
westfield
skipping

氷
liturgical
twentieth
##sto
[unused192]
attendees
hunted
imporatnt
West
sparkle
trieste
brothers
wr
wir
humid
northbound
History
bahrain
supposed
sham
relig
guggenheim
participant
eyelashes
##Taking
Firms
mascara
apocalyptic
tempo
guiana
1880
laboratories
fridays
դ
flavors
ranger
horns
Exper
anne
key
sabha
raleigh
higer
##lining
regimes
flop
hurts
angelo
construct
shi
derry
gibbons
戦
rodeo
local
ʸ
christmas
marco
anita
kettle
faust
ட
discussion
thesedays
##IM
##uccesful
##gl
branded
Tv
##น
Soc
##ь
sensibil
climax
cecilia
merits
carroll
##enge
##enc
##by
##icle
racehorse
##aking
sy
##ع
univer
geographically
[unused89]
##ually
##nel
kinase
prevail
##ially
cb
leigh
##meric
subtly
##That
fins
readiness
--
##ish
damage
ska
eccentric
水
consolidated
posting
Americ
##nir
noir
triassic
29
mathematicians
reiterated
heck
cartridges
[unused459]
oddly
[unused47]
nothing
takeoff
##神
analytical
##urbed
##capable
##olate
liberal
flared
listen
##ket
##atr
[unused821]
policy
郡
yin
knowled
rub
subsided
[unused596]
##₄
Like
See
aquarium
comprehension
##flow
vulnerability
##iji
filling
##hon
##iment
shetland
##rist
fisher
piled
nueva
indifference
###
##rians
prentice
expe
restrict
calvin
##pods
accomp
rubin
65
adelaide
Yes
strikes
perceive
translate
arrest
##odon
##ror
pipe
boris
locked
president
##ce
was
stereotypes
detachments
mediterranean
##rying
contests
campanies
comte
¤
helps
##OR
##plex
rabbis
morse
palermo
syll
stocks
vir
homecoming
grenades
##jali
[UNK]
this
bosch
truth
trinity
lately
disappeared
fulfilled
imperialism
murals
urbana
appartment
rappers
frist
1570
betrayed
pencil
diet
mani
theses
bring
alleging
poses
duluth
azores
scholar
noticing
##oments
##eza
harrington
aston
य
##tp
ib
unknow
nhs
objects
##sler
fitted
[unused518]
notes
engineers
Ass
magazine
HAR
ear
sexually
crouched
inevitably
audition
steward
##scu
##文
wellington
jerseys
##ג
hypoth
crowded
spawning
##brates
transaction
vamps
jaipur
pit
lore
nt
exprience
attemp
edward
[unused171]
elsewhere
ngos
demonstr
piracy
##antic
referred
proport
hen
changing
implicated
##ral
havn
mar
confront
munich
reborn
fatally
travel
pole
gatherings
sailors
##etz
stalks
savings
tournament
accelerate
1890s
shout
burns
Phys
jihad
[unused601]
polled
[unused505]
prophets
cushions
##rough
francois
exile
friend
hanging
##orn
load
##へ
##oment
amore
education
notch
excell
associated
interests
methyl
valve
playhouse
##olite
turtles
##vah
migrants
##emt
PL
mitch
thy
lavender
las
##-1
exhibitions
90s
majestic
fingered
[unused752]
wrecked
winnipeg
mask
##nor
revoked
women
crumbling
≡
christ
frozen
w
emery
standings
shapiro
secretariat
eveything
existent
newscasts
coverage
aidan
enoch
##uly
##hemat
incomplete
570
puppy
##dance
viscount
##times
unexperienced
hearts
##liers
anchor
tornado
monarchy
life
ballet
robot
139
##chio
bulid
[unused197]
eleg
remotely
##Successful
sobs
##erving
platoon
knockout
##?".
provoke
bluff
warp
mould
##sel
hepatitis
varying
chatter
##tania
funding
beat
dram
assess
##7
tame
##logical
selects
fileds
hickory
scooted
slab
##glio
##pace
putting
pepsi
loo
jake
##kaya
##く
##vili
貴
rested
anson
pearson
conflicting
hopeful
shipments
parrot
supervisory
murders
八
firth
##astically
gardiner
minute
jeffrey
factory
tube
emp
hovering
##like
flexib
inspite
##tarian
theri
##hosh
frequ
oleg
adolescents
sarcastically
sl
##nberg
gruff
glenn
executed
kabul
sentenced
A
66
insane
louisiana
terms
alternate
nicer
environement
##uar
##quist
messed
interest
authentic
abbey
considerably
pickering
●
halifax
##rence
jon
taxi
amended
thighs
retorted
akron
##If
∈
motivations
experence
##ops
innovations
##aer
favourite
justices
supplemented
##text
recognizable
1751
litigation
move
vowed
##®
awe
stability
##θ
##gic
##oia
kissing
##₅
keynote
gustave
##>>
##イ
Currently
sheridan
[unused52]
bundled
##aring
benif
##gill
outdated
knowlege
ded
npr
[unused249]
devlin
[unused702]
yourselves
martin
boast
brief
##cated
expend
subsidies
[unused337]
usualy
[unused475]
cardiac
foul
schubert
klan
canadian
hansen
##places
hume
##fera
compelling
entity
constituents
unuseful
extrav
computed
numer
circ
obliged
booming
fleets
sus
↔
barrister
fundraising
##inion
worst
mighty
##landa
structured
##beings
translator
dolores
flashed
domains
vp
##aings
##mature
yugoslav
##pi
attributes
target
##nu
1826
prof
replaces
Acut
engross
mariana
naive
spontaneous
kindness
theis
incidence
remarks
joseph
dunkirk
trem
expri
ter
##lowe
liege
##das
shaky
loy
luton
everythings
MUST
funeral
skull
##oring
caleb
lieutenant
serge
cervical
modren
moer
proceeds
pumpkin
61
##awan
van
##ites
romanian
foreigner
initiated
wicket
fitzpatrick
sort
game
geographical
[unused232]
andreas
##brush
mixing
lloyd
say
UK
##ho
emptied
ே
##ry
##giving
motorola
amusing
##ks
##olf
cinderella
released
breathe
wiped
##igth
fran
rapp
abaut
metaph
##ars
ll
padre
##fleet
watershed
atheist
##eit
depth
thrusting
zealand
##れ
faces
blanchard
##dlow
burke
tx
cord
##kker
collision
briefing
events
vernacular
automatic
1)
jungle
matured
##ngo
[unused800]
##lum
ono
utterly
accuracy
myriad
##anced
inverness
##asic
vicinity
##ommunity
##ـ
jax
parson
connecticut
emb
mikhail
##ggle
ذ
⁶
majority
##tooth
fall
##escu
joyful
##nments
50%
phenomenal
tend
Despite
tennessee
advertse
javier
[unused738]
##gna
unconstitutional
affected
judgment
##vron
##edic
##モ
proposals
seccess
bedrooms
se
maddox
sumo
##日
youger
##eche
sobbing
##trust
##eving
arch
cavern
620
emigrated
門
blaine
##ए
lullaby
cambodia
vulcan
theft
commitments
[unused535]
Form
alternatively
son
prolong
##folio
appa
##sund
##bery
strengthen
##ves
xiang
[unused256]
Information
##Q
deadly
specal
cpu
##gerous
face
vector
Ken
##nik
dur
archdeacon
prohibition
King
herrera
unneccessary
savior
gospel
fujian
theire
fiercely
exponential
prohibiting
foreing
sched
aquino
recreated
##useum
employ
howell
##per
94
⊕
##nals
##children
resurrection
refined
garments
prone
##生
##younger
qin
χ
him
tighter
starts
processing
tara
peri
burr
hed
quartet
adol
roe
bce
も
general
##tz
##achi
sentai
##fuel
##phant
slack
crap
commodore
sucessfull
##ण
emphasis
##isk
##oria
##welling
moder
personally
jumping
skeleton
267
just
kemp
anna
sergey
multiplication
##ario
involvement
brew
awful
41
vantage
pediatric
bolivar
convien
True
AND
oslo
[unused960]
##iri
##iffe
##ington
franciscan
82
##khov
policing
resurrected
##oz
slogan
billionaire
##ferring
conversions
[unused536]
##nate
colleg
##esla
turk
uncanny
continuation
flourished
albion
』
impul
##ma
loren
steamship
neatly
##dant
reminder
##olt
choosed
inspected
consequenses
anglican
instructed
##lish
abdomen
rout
postion
[unused214]
1910s
celebrating
shcool
id
accessed
##ionment
clarify
abroad
placing
affraid
maxi
[unused888]
mina
irresponsible
schuster
э
detected
bulgarian
wrinkled
operatic
metaphysical
undestood
paying
responsive
##arently
880
favorable
scottish
locking
##ross
whe
conveniently
hol
dragon
##lwyn
Less
daily
classmates
##eak
##hurst
##ת
unt
haiti
Biology
prosper
commodity
creep
adolf
misrepresent
presidential
displayed
spheres
[unused494]
##ITS
Firs
##hit
THIS
papacy
chaotic
na
interior
baronet
vince
##itz
##nished
Never
acheron
##ert
grandchildren
contents
gaunt
warm
dropped
hissed
grenade
marino
eel
bar
bolton
amazement
##風
##bul
[unused728]
dynasty
##uki
debated
heroism
bracelet
THERE
deficiency
John
partly
sam
triumph
##isa
automated
##pts
stagnant
crisp
intentions
Some
These
瀬
luna
plantation
bournemouth
du
##west
free
[unused861]
rockets
calculus
##lce
Know
archaeological
は
too
predatory
Happ
greyish
broadway
##ought
uphold
guantanamo
224
commendation
##erian
Fur
##خ
pock
zu
##gist
fates
creaked
Through
cheat
guarant
desk
phylosophy
answ
hill
axis
renovations
accompl
lowry
irony
signing
sobbed
##iddle
portuguese
cameroon
flourishing
examining
theat
monitored
bullets
wrinkles
portion
ignores
produce
patience
junctions
suzuki
sofa
carries
imply
polka
##NOW
undergraduation
positions
sweating
papyrus
##ries
props
225
##irm
twitch
##bis
federally
shifter
##zial
##tf
##ied
deeper
##gam
experiments
affirmed
juniors
arbor
£
josh
reyes
instability
Starting
armor
##reever
340
germans
fishes
##⽥
salvage
##KE
shrill
scarce
##olar
rockefeller
combo
compared
determination
dauphin
aftermath
[unused584]
connected
Alva
landed
pakistan
qualifier
[unused235]
hogan
steal
1955
renegade
reeves
bwv
##hc
vernon
removes
select
##gr
helping
dra
implement
basin
[unused546]
nationalism
magna
alpha
fx
##ayton
patrolling
deborah
developement
##keeping
alliance
knowe
WILL
Usually
##tr
sees
eva
##pia
viruses
##sse
reporter
larry
##ulata
rapids
##unda
democracy
##psis
chew
behaves
segregated
automobiles
our
##pf
definitely
checkpoint
irritation
mavericks
dt
[unused43]
raging
##vice
peaking
121
workings
floppy
confe
##uga
dalai
lists
##pd
##sław
extrem
classes
bullet
##Don
gubernatorial
GDP
villain
η
developped
##ics
##pg
##ono
stock
##cation
encoded
Back
##game
advertis
companies
presumed
punct
tasks
##word
Gu
Gal
visibly
piccolo
##ilib
lenin
ben
dams
lasers
cluster
probing
##OS
cruelty
killing
displays
##lay
theresa
Ever
scarcely
biological
##taker
dirty
##corp
custmers
scoffed
##usiastic
1947
memoirs
cessna
margins
##we
ordinance
sectors
torment
##********
reagan
eighteenth
lifestyle
pleasure
##э
muse
[unused299]
##inn
saled
iucn
thik
corpor
meetings
philanthropic
##«
tuition
banjo
dan
##35
rectory
nolan
could
##lls
surfing
industrial
Sim
##worth
##rsa
electricity
##lica
##champ
siegfried
[unused239]
digits
algorithms
cuba
##dr
[unused515]
somenthing
##pain
bounced
assists
cooks
##bl
polling
##pad
theor
##pth
ordeal
regis
##cis
decent
calmed
68
rice
##lau
wheelbase
##bor
##lim
coinage
candy
##crest
##wley
lays
foriegn
##bi
heavens
levine
perman
resposible
ᆸ
[unused6]
##ald
nesse
traditions
loser
communication
##lec
trade
greenberg
ducked
peeled
##rism
hair
kilometer
spo
otherhand
fellowship
##door
led
##dig
pts
##ients
breeders
##igo
murdering
palce
signal
burnham
##eer
forehead
##rought
repons
щ
1641
##ih
harcourt
reporting
European
quasi
battered
bare
athlete
abdul
wisdom
##bury
pointing
samoa
Should
destined
glint
stabilize
marquez
dollar
##whether
##ᅲ
kawasaki
pisa
aluminium
soviets
[unused426]
suicidal
SA
arab
clause
borned
pietro
279
ahmad
reggae
marquette
##お
##undai
byte
bycicle
soto
Economics
leading
##first
ナ
##bang
Ataturk
1560
hobbies
meg
secure
discour
marlborough
##60
##umers
arya
boardwalk
deities
peggy
ito
ultra
##<unk>
choices
serbian
MS
makeup
vacuum
lisa
footprint
seperate
##cup
##wark
volume
theorists
trustable
rea
dorsal
morrow
degrad
##ooping
unbroken
twelve
frown
senate
akira
afghan
ext
##wk
##eli
examine
##nail
horribly
##ァ
##ime
##OD
##woman
##itled
##onic
holds
details
belinda
lined
keyboardist
41st
joe
##eller
下
undergo
terrain
craftsman
volatile
texture
gran
competet
assistance
bacon
bas
freaks
łodz
unwilling
ic
5.
##vac
00
concerts
parker
##dron
##BE
##lusion
##bella
bund
wildly
##reat
plucked
expere
pulling
##თ
##1
stallion
peninsula
##হ
testimony
##mah
[unused571]
dieter
kb
states
##ppe
disagreement
humankind
antonio
Lim
En
##pton
Other
smooth
travle
asserting
extre
pes
hiv
dhabi
##borough
night
benefitial
possesses
##ties
examples
##IV
del
screen
athletic
##co
attorneys
##lo
##orio
styling
之
garbage
experimenting
correctly
Personal
##usted
##cep
seemingly
saunders
opponents
city
sensitivity
raiders
as
england
##atley
cottage
[unused428]
shriek
promote
#
tsar
superseded
regulars
##ct
adorned
##ulkar
cond
mastered
pledge
awakened
israeli
unnecessary
mimi
bul
##eck
foreman
jewels
##unch
pat
kennedy
##lick
fetch
australia
kw
##izer
deliberately
1930
regal
eastward
dalton
useing
Short
periodically
##rogen
bangladeshi
batted
knowladge
ibm
Saud
radiating
selled
commissioner
290
satirical
introduced
fis
upto
trout
traveler
glances
Geog
[unused93]
nose
thim
##亻
[unused612]
ku
privilege
[unused622]
buildings
relegated
saxophone
jets
##ique
##や
Wall
iona
reza
drastically
cart
##rington
knowle
colleagues
[unused803]
##ther
spoken
stere
municip
guests
missile
glossy
layton
regards
bellevue
appear
##wicz
##PERI
pret
grotesque
##tha
interference
laptops
succeful
heron
coo
alicia
male
groaned
zhang
memorials
##beat
mercer
giggled
dubois
equals
negotiation
translating
residential
##utnant
invincible
##iving
explores
clade
marley
magdalene
nasal
[unused463]
##set
innsbruck
corridor
henderson
##ntal
hadley
hates
hon
azerbaijani
booster
poorer
د
ns
m³
massive
##quin
##self
geared
wherever
interiors
sphinx
imagin
fundamentals
##low
burger
caf
158
catalytic
tendencies
[unused780]
fash
[unused743]
strikers
last
##und
so
fidelity
bill
grateful
engage
web
##oir
##nine
clockwise
organizers
PHD
abrams
reconstruction
##bey
##me
handles
##kish
##si
sudbury
embarrassing
withdrew
##ucible
leyte
##OST
elise
##bry
Service
encourge
pg
319
principals
undercover
pigeons
1780
miscellaneous
acceler
reinforcements
##yse
weather
specification
##lbert
##etched
##rit
somebody
##krishna
##acker
##fell
scala
witches
clap
benign
canyon
Ronald
##games
murphy
##ouns
ح
##kawa
churchyard
profile
##haps
compares
##vard
repaired
shelter
perse
transvaal
vortex
##oki
##tonic
##solving
ham
prest
[unused382]
##think
blinked
conviction
jocelyn
##look
occidental
clergyman
elliptical
saul
1896
##pour
midday
##5.
laz
[unused947]
grandparents
isis
camilla
sail
karl
spiked
assortment
##ty
ob
nigel
This
incense
repertoire
sis
##ssion
chopped
bram
mythological
##pina
seized
##rail
committment
[unused421]
examined
##0s
##aped
chris
shutter
ludwig
graded
##rences
IB
worshipped
progresses
##%
##vres
##疒
parameter
bom
ae
gustavo
rises
compliance
##atry
homosexuality
olympian
1875
compromised
##avery
defensive
##bolic
##itt
##aph
##riders
sixties
##ensis
##²
buck
velocity
exept
lakshmi
[unused593]
35
After
[unused9]
##的
slice
nemesis
centred
sped
shoe
winfield
distinguishes
tipping
##omo
competition
##rep
fifty
##ch
##chin
deterior
կ
ripe
tally
sergio
##thood
user
[unused147]
lacrosse
commanders
newest
acknow
adventures
parallel
##que
ord
composers
excitement
realism
shocks
Ide
hedon
1934
creatures
stealing
harmless
better
boat
##ulin
factual
idealistic
promo
1672
sul
22
typ
contracting
##ᅳ
##holz
hugely
bennett
duets
1766
nicky
##chner
thatn
accusation
[unused806]
bets
deo
burials
skiing
slips
##,.
##iae
disguised
suspicious
regiments
masterpiece
##athlon
tem
cous
qualifiers
##方
aware
reel
hasn
numerical
springsteen
tensed
1721
appropriated
troll
bully
blood
responsable
unconventional
italia
##ube
serious
hin
bicycle
fcc
##ometric
scholars
captained
NOT
happend
kunst
brewers
mouthful
answer
elm
seasoned
##itionally
winged
circus
threatens
minsk
cushion
antoine
contempt
reddy
州
errors
monks
##tm
[unused949]
prototypes
travers
finalized
rural
soda
##tions
navarro
ᵉ
jailed
seems
clayton
##iente
sniffed
homeless
[unused348]
archaeologist
http
ˢ
Mercedes
660
producer
stepped
drifting
[unused414]
ratification
rom
boiling
activated
##ᴰ
##itee
##zzle
globally
ownership
##agi
playstation
celebrate
##–
interviewed
promising
##iec
abilities
rt
##leg
##ducts
trash
##cape
kelly
##io
##iem
##ン
[unused445]
transporation
maddie
70%
rejoin
##dur
##ica
yeast
gra
conserv
pigeon
exce
pena
sonic
##heel
##ibility
##cheng
ᅵ
compr
rumbling
counselor
[unused48]
explode
##other
apart
gunnery
haw
liza
1649
schoo
sox
riddle
eric
beleave
preper
gillespie
sensors
ð
clarkson
Compared
helpe
Without
hounds
Frank
ka
archival
sharp
Ther
borneo
waldo
sabbath
asteroid
colt
oh
penthouse
chunk
mouthed
##asty
premiered
naturally
chennai
wears
daytona
rotherham
116
penny
waste
advers
lawy
package
bloom
dialect
pairs
matthias
beside
proces
outspoken
##ption
refreshing
1679
##ance
##AND
tool
choir
optional
15th
rolling
##arium
funky
reliance
projected
herring
##base
april
cus
barns
immit
##…
1999
vilnius
didnot
chip
unitarian
flows
bys
standardization
novelist
##mund
malls
enduring
remind
launching
gmbh
armada
decreasing
interval
##chenko
sorted
##chu
jews
cine
fucked
isaiah
##thi
hotels
Ag
fathers
leadership
[unused506]
uta
##nat
##ki
##math
brake
using
alabama
monaco
sociey
##cure
fighters
pantry
mystic
hes
diffirent
saskatchewan
regard
##mbo
metals
##ocks
algebra
##ola
##ᅩ
catchy
launches
reserved
biased
##istry
danube
biochemistry
childern
ව
robotics
scrolling
banda
crater
breakdown
deeds
naturalized
honours
England
recieve
##rked
improve
च
reduced
ada
##hips
##ra
curate
exactly
oro
core
arabian
ferocious
coalition
elbow
johnston
Archite
wallet
sebastian
groundwater
sonora
torches
taluka
galley
supplements
##iveness
##ℓ
backbone
bra
oblige
nz
reopened
overdose
criter
russell
eleven
infection
##ized
grip
P
atlantis
huntsville
buzz
[unused627]
importante
horned
tomas
word
##ems
##However
corps
adams
narcotics
subsidy
decorations
##mare
##idual
administrator
##18
##dered
1790
erica
##lok
patronage
##isches
Whatever
eligible
eddie
89
ban
baroque
sucess
##society
journalism
raft
##P
highness
emphasize
wrexham
analyst
##acture
situations
todd
iraqi
succeed
excerpt
##rned
demost
inferno
unspecified
##uru
##esian
gadget
ན
debating
5000
abdominal
##ample
offic
##horse
##understanding
formally
##gart
Berlin
crude
crept
doctoral
231
ষ
##book
biomass
whish
folk
##ANCE
beatles
lengthy
centralized
##lectual
moi
glaciers
##sp
beale
dangling
199
##rodu
##bal
roared
##ersed
qualification
yamamoto
##ruff
copeland
whith
shuffle
arlington
##bari
bungalow
sabine
shampoo
nood
##ment
imprtant
nottinghamshire
haynes
rotor
[unused390]
prim
searing
##ile
absorbed
lied
##lka
devon
版
terrorist
##orith
[unused252]
pick
refugee
gallons
foundations
november
greatly
[unused162]
hazel
##ง
##ificial
##ning
stairwell
command
royalist
inference
##arer
lives
highlands
##相
お
transitioned
##eties
Along
administr
332
[unused727]
[unused749]
##青
technolog
armistice
distracting
##訁
##ส
##tish
##zio
gulp
friars
testified
##uttered
phenomen
appointment
##economic
##apsed
loans
devote
incorrectly
lin
ᅭ
vanish
contrib
stim
##rkin
herb
breakaway
##combe
growled
##ら
program
lowe
dealing
##alian
##dget
##ظ
shoes
orig
mey
clim
##cars
##adan
##kar
neccesary
tastes
v6
remixes
third
project
[unused357]
##lates
hesitation
pharmacy
##tees
―
urging
depiction
IMPORT
##icable
พ
fungus
04
perceived
carpets
bulldog
tempt
cables
communites
echoed
conp
auth
##ব
reefs
experinced
[unused508]
way
##oot
##olin
simon
##kiewicz
##OP
##Special
##JECT
chassis
potter
fire
■
##ckle
mayors
achievments
aroung
corbin
pebbles
##yles
dolly
got
insurgents
stay
lucas
##aning
genres
ecstasy
sliding
##愛
##acuse
appreciate
ვ
transportation
tyrone
buis
dock
abu
still
wounded
##年
chesapeake
volunte
resou
algerian
fond
recycled
complications
additional
Non
pines
achieve
Philosophy
bias
mock
instruct
concealed
eastern
bikes
##ж
breaths
prise
yells
pradesh
##₀
studies
##rst
nazis
statehood
astrid
schwarz
disag
exiled
##mill
##but
honest
swore
3rd
Hol
##水
necess
gilbert
excluded
restoration
[unused32]
curious
##itation
252
advices
versions
review
mecca
##izza
द
##cent
inaccurate
ejected
executives
munchen
##essions
Frankly
##tia
continued
tone
constituted
##zbek
##sul
ng
wiltshire
doct
atr
barge
[unused410]
said
##د
rain
imagery
aspire
alarms
unhapp
barangay
nutrition
aggree
feeding
cosmet
retailers
exp
backpack
oppression
cue
##eet
[unused266]
1726
carriers
acacia
fossils
enlist
distraction
[unused588]
##guer
transparency
##lord
##ficient
##ix
posthumously
##fy
##TS
dewey
pharaoh
##ව
stroke
lilly
leto
##vre
manufactured
dissagree
cul
eased
##rill
lexi
##ipend
nash
blackness
flats
disused
##4th
24th
lic
attack
sheila
tracking
tasted
embroidery
chron
##second
_
lightweight
napkin
nodded
rafe
von
##bt
feedback
glucose
##vr
AN
sparta
theology
THAT
SP
134
mig
absorbing
hits
colorado
injected
michele
stimulation
##tenberg
doctr
themsel
##isions
prize
reside
grandm
triad
##व
##inerary
glamour
cypress
bedside
uncomfortably
practising
dwellings
chap
##ala
inherit
Not
##poo
gentlemen
ping
##ched
cube
[unused124]
complete
aachen
undestand
ressource
negotiate
gradually
510
crate
##り
overt
guernsey
publicly
##hip
Norm
conservatives
cambridgeshire
##inds
ft
内
##obal
##ative
skulls
##¢
understands
##ট
brill
massage
criticize
befriended
##jn
unfit
1701
inland
##bians
172
studied
deteriorated
##ccer
thousands
regulated
limbs
##cheon
pinyin
encycl
7
conservatoire
sponsored
##azing
light
amulet
##pps
mafia
##ettes
##arch
##dad
##iors
vertically
pred
"
##AR
shool
unused
##fered
##cible
##ウ
signaled
eroded
kate
suppliers
propose
PRO
org
##phas
##fashion
##gard
borad
[unused499]
restless
char
competitve
draws
87
cheeper
##58
##cycles
ascribed
mack
distal
continuosly
disqualification
106
arose
sophomore
##genase
##iard
counties
adjoining
##elman
##aido
##THE
、
sustainable
editor
##__
parade
sliced
Don
connor
##dert
quarterfinals
ideol
writting
appriciate
##t
reflective
##cross
##rrier
hard
vito
holmes
⁸
##liche
hawke
##abet
confrontation
vertigo
conducted
known
ministers
tenant
fia
98
##ნ
##personal
##幸
helen
##mostly
sikh
navy
buil
mn
affiliates
1702
tread
staffordshire
目
crusaders
Histor
considered
collaborating
incident
unaware
argument
##grin
久
several
nehru
digger
developmemt
niche
incite
236
Ex
##ulo
hiroshima
testosterone
consum
remained
##hosis
themself
##uo
processor
##ept
preference
basicly
##istics
wich
gideon
embraced
werewolves
novgorod
##utter
akin
connecting
[unused12]
##last
concerto
dos
minors
bluegrass
nurture
hitler
mackay
chemotherapy
interresting
schwartz
mines
blink
habits
hanover
evie
harbor
episode
Person
cells
proffesion
flexed
奈
breat
journeys
val
attrib
##³
rats
55th
kaye
##pse
guarantee
periodicals
uv
clinch
runoff
[unused305]
cheryl
##gni
##yer
guard
buddhism
orioles
scratching
bradley
relevance
ellington
##tta
249
artificial
aztec
##buch
invading
lauded
continuity
filly
##ᄀ
##isch
##dor
##frame
TVs
delays
reprise
strip
##ᄃ
##uka
wives
psychiatry
thoroughly
ke
道
wingspan
box
peter
[unused724]
costumer
Bangkok
straightforward
revealed
maestro
##rapher
etat
##mons
patrons
backgrounds
##kyo
wells
attempts
servicing
excelled
temp
##This
foothills
prefer
kenya
##ographic
##ր
Engine
##icus
juno
Focusing
##orders
##din
cranes
unbelievable
##cratic
shattering
lonely
interdisciplinary
ィ
capab
contributor
##nded
controllers
Bank
##atin
cotton
over
##power
dared
[unused988]
impress
acids
##rius
romeo
adaptable
verified
(
gunner
herbs
gabe
donkey
##late
fracture
amsterdam
collective
req
153
##field
culture
eyebrows
smiling
1871
##el
shouted
consort
[unused288]
[unused473]
isabel
##kn
Ind
focal
Up
forgets
hamlet
guide
oversaw
tho
espana
##華
discovering
pil
1783
##lan
resouces
mage
disclose
idiots
marketed
grew
##zic
infinitely
producte
##cont
##drum
mikey
##ioms
##oplanes
room
hutchinson
mall
siena
chapman
##aired
ashamed
##otant
alberta
##icip
recruiting
##uit
truss
leith
yacht
mps
speci
##irect
##eth
focused
mand
restrictive
couch
exaggerating
cylindrical
curves
##tl
persone
##lberg
constant
colleague
##ন
##essful
blogs
sho
##feng
##nment
##mont
racks
Would
catchment
cumm
goth
##版
cardiff
##52
##nics
arden
##明
##ckey
sequences
mm
[unused634]
topping
leslie
##hid
Einstein
indepth
oldham
yep
ₑ
comment
##tium
convincing
reset
##nion
##stick
those
billed
ு
analys
合
bit
##名
將
##車
refurbished
olsen
leopard
Su
##ented
autism
afternoons
allmusic
160
defected
dedication
12
##riam
straighten
##erence
normal
Furthermore
amin
berman
##nden
solid
enviorment
##hausen
perseverance
lange
##ead
seats
##erin
downloads
trades
professorship
mongolian
##store
regu
##lla
collabor
##lco
##ili
imperfect
folding
fiesta
##mu
1980s
##ɨ
amplitude
concur
advetisement
Lee
yamaha
anyways
cancer
electric
modern
unexpl
##▪
policemen
compatible
round
##unk
united
##キ
germain
rod
refining
laughing
sql
278
stil
disperse
stereotype
jordan
##lda
throught
##ele
europeans
##la
##rocity
[unused918]
miguel
backround
sharing
ngc
passionate
##ama
bishop
1844
147
258
frantically
Neverthless
coca
##aty
thing
vocal
##lea
stained
everywhere
47
Typically
petty
taste
hartman
acknowledges
Eng
course
browne
##morphism
zombies
randall
ʼ
lasts
acquaintances
treaty
gifts
baseman
##tro
hairy
##wen
pubb
##lge
visitor
sprawling
groceries
pleasing
nana
##火
odyssey
##opped
convince
330
seventh
##heimer
##ysis
captive
##ises
subdued
incorporated
townships
manitoba
force
antibodies
##iums
lit
stem
##dav
##eaux
shear
##apore
willoughby
object
affairs
##tina
aged
dead
comfortably
promotes
defamation
φ
mma
ל
lock
longing
licensing
colleen
supplying
##ult
ac
chang
##fting
##⇄
ballard
galaxies
sca
Los
elements
skin
docked
hermann
advent
##rr
reprint
##fia
themselves
viol
detecting
hides
informing
stranger
interred
graduating
Mittal
##van
gay
clinic
kill
histroy
justice
message
dracula
11th
merlin
comp
##able
schneider
##isement
creating
adobe
upstream
bribe
engaged
##ict
scriptures
ann
##oc
##lic
stayed
sharpened
cig
volent
##hunter
freshly
hom
dragging
intertwine
berger
whaling
##built
directive
singled
tabacco
snatch
off
experts
six
greg
consultants
infiltrate
hitter
phrases
smith
##has
actual
comprom
conversion
##their
saigon
equipped
sharma
attracting
petersburg
mathematical
aeronautics
collage
##U
##vd
##rda
tao
arjun
tiberius
furious
blackwell
objection
letting
disappe
monkeys
vegetarian
trad
thir
upcoming
geographic
clyde
blake
dumb
MP
northward
pic
##rdon
fruit
dax
220
[unused566]
teaser
beaver
bathrooms
##much
##uven
suspect
warmth
surfaces
electrified
anguish
secular
peacekeeping
disciples
reaching
founding
peanuts
masonic
##typic
poly
vamp
[unused399]
appearances
functions
prevent
##cum
##iders
cartoon
Increasing
twinkle
##come
periodical
##86
##zaki
inconsistent
stress
toured
maybe
tramway
supervising
movements
causes
null
ethanol
indonesia
catch
manipulating
Univers
[unused923]
influenza
nassau
hornet
heinz
fortun
##⁴
mov
##ained
bright
tick
acknowledged
aven
borrowed
166
##laze
writhing
cosmos
sacramento
ventral
thi
embark
khz
steering
##和
##ausen
pretend
334
striped
migrated
interim
problematic
Always
cyclone
##ね
kernel
sylvester
Men
cox
¬
proprietor
jing
##D
pulpit
precautions
##cultural
dad
balfour
##rather
##apan
10
sculpt
empty
Customers
HIV
incid
stimuli
##itly
require
mimic
direct
SPEC
fashion
avery
emm
[unused333]
incorporate
but
[unused652]
diverse
tiny
repet
fit
##Knowledge
##orted
padres
quarterfinal
communes
vein
caressed
##sley
overseen
moffat
manner
discount
bertram
intelectual
##კ
georgina
terror
fortune
diam
[unused693]
los
##ari
shooters
Have
unemploy
contex
mats
##asil
coloring
interst
analog
ら
row
##grave
##deck
thr
[unused76]
whoever
##otechnology
patting
helped
fredrik
locus
brandt
##)
chewing
crosby
##ational
author
##hicles
彳
trumpet
##ount
normandy
dixie
statesman
wetland
gardens
rabbit
untouched
##Nothing
##lor
indication
མ
Communities
insist
[unused444]
southend
fraser
residences
gutierrez
pouring
voyages
sired
leagues
ɾ
daemon
cognition
bump
momma
self
anxiously
##bria
##צ
##tangle
bottles
misty
ich
Learn
mit
protesters
reinforced
edmond
Marketing
cheng
fabian
##advert
williamsburg
##oge
##cn
archive
BY
[unused454]
boots
##Pl
##bula
tragedy
neighbourhoods
##alling
mg
wagner
vickers
arrogant
manipulate
purification
networks
conquest
familly
monte
humour
##itons
##gining
ecclesiastical
rower
collins
indust
##These
loneliness
Trying
imposs
##R
93
##lee
##sych
##カ
##Cl
chore
##ession
flores
##friendly
argyll
##ize
flower
winding
India
catcher
FACT
janata
##iastic
frust
##⇌
discomfort
cancers
pollutes
sergei
partner
bodies
cutter
affor
##வ
convection
wai
northampton
##mat
bangs
penetrate
buffalo
produced
pirates
312
iihf
demands
heav
##dd
##poration
##erious
##ᵐ
flame
adap
##arily
literally
sur
likings
brunette
humphrey
throttle
shifting
曲
repairing
values
pickup
advocated
##iton
dir
fre
##bage
##inig
insight
1789
admissions
discussing
##11
soared
usus
releases
vlad
girlf
southwestern
ezra
branding
motorway
[unused30]
##curricular
tracker
blazing
##uc
##edd
##aust
mean
##ල
status
considerable
297
pitted
spirits
benefactor
craze
victoria
possibilities
##arable
pace
##ional
ingred
missy
lc
cerro
ment
coor
[unused932]
movies
##ea
part
fishery
hail
[unused79]
Poeple
##posed
bankers
invasive
##軍
doping
aligned
##grove
consciousness
stagecoach
1697
judgement
catastroph
##´
hostel
42
opposed
mets
mausoleum
ting
rejoined
##Later
##udged
estate
latitude
reformation
cardi
personnal
Ed
##onymous
alligator
rugby
frankly
relentless
reverted
##hore
##AIN
##duced
canvas
salmon
##osa
explo
feasible
dep
pulsed
##light
astoria
inspirational
tonic
##rne
##女
macro
₱
juan
penultimate
ล
flick
[unused387]
[unused547]
##ules
attends
activation
##ffed
denim
),
approach
strata
ھ
168
tran
な
mechanisms
[unused833]
enzymes
underlines
distance
supermarket
siemens
dripping
interesting
dickinson
observes
dispatched
complimented
syrup
outer
beut
defending
eh
amendment
##peration
##ӏ
muscled
house
alexandra
[unused684]
conne
close
advertising
wrink
ate
fey
##cake
香
exec
##zhou
Gl
##λ
birch
##icaly
##ⁿ
[unused441]
lo
overwhelmed
tufts
socity
1787
portal
184
configurations
psycology
mint
traveled
##ト
rugged
aggregator
buses
##roll
confederates
##achelor
okinawa
woodrow
##eople
1894
dowry
urged
sal
##called
beam
kitchens
tooth
##ization
birth
johns
##aneously
recomm
zeta
built
##rdi
sate
272
##ョ
ported
angered
ambitions
sorcerer
vacancy
##islav
grocery
precipitation
##kot
giles
1733
reaction
##flight
recounted
aero
bratislava
cocked
Ho
honor
injuring
digital
feel
syndicate
deliber
##developed
hinder
vargas
absorb
chargers
sharon
sculptures
curator
##utable
employer
franz
plot
barracks
##տ
attem
whitley
[...]
